{
  "version": "1.0",
  "truncation": null,
  "padding": null,
  "added_tokens": [
    {
      "id": 0,
      "content": "<pad>",
      "single_word": false,
      "lstrip": false,
      "rstrip": false,
      "normalized": false,
      "special": true
    },
    {
      "id": 1,
      "content": "<mask>",
      "single_word": false,
      "lstrip": false,
      "rstrip": false,
      "normalized": false,
      "special": true
    },
    {
      "id": 2,
      "content": "<s>",
      "single_word": false,
      "lstrip": false,
      "rstrip": false,
      "normalized": false,
      "special": true
    },
    {
      "id": 3,
      "content": "</s>",
      "single_word": false,
      "lstrip": false,
      "rstrip": false,
      "normalized": false,
      "special": true
    }
  ],
  "normalizer": null,
  "pre_tokenizer": {
    "type": "ByteLevel",
    "add_prefix_space": false,
    "trim_offsets": true,
    "use_regex": true
  },
  "post_processor": null,
  "decoder": {
    "type": "ByteLevel",
    "add_prefix_space": true,
    "trim_offsets": true,
    "use_regex": true
  },
  "model": {
    "type": "Unigram",
    "unk_id": null,
    "vocab": [
      [
        "<pad>",
        0.0
      ],
      [
        "<mask>",
        0.0
      ],
      [
        "<s>",
        0.0
      ],
      [
        "</s>",
        0.0
      ],
      [
        "_",
        -1.6559295160641838
      ],
      [
        "Ġ",
        -1.7883467799912935
      ],
      [
        ".",
        -2.5181038971227387
      ],
      [
        "u",
        -2.8191399922543354
      ],
      [
        "}",
        -3.159507525117114
      ],
      [
        "{",
        -3.161166572898644
      ],
      [
        "(",
        -3.181868559298046
      ],
      [
        "1",
        -3.208749857541555
      ],
      [
        "0",
        -3.379318099456963
      ],
      [
        "@",
        -3.3967249759834175
      ],
      [
        ")",
        -3.7845796220635037
      ],
      [
        ",",
        -3.9295175725983675
      ],
      [
        "2",
        -3.9743412681260146
      ],
      [
        "3",
        -4.481194347500054
      ],
      [
        "o",
        -4.725147066913577
      ],
      [
        "t",
        -4.766177252434835
      ],
      [
        "4",
        -4.967545647407322
      ],
      [
        ":",
        -5.043447941859325
      ],
      [
        "5",
        -5.259818539481518
      ],
      [
        "heory",
        -5.272703491991727
      ],
      [
        "CategoryT",
        -5.308494012909129
      ],
      [
        "Semiring",
        -5.552838159222707
      ],
      [
        "+",
        -5.66345632762018
      ],
      [
        "6",
        -5.671987067528265
      ],
      [
        "max",
        -5.67250646419722
      ],
      [
        "CommSemiring",
        -5.937143094376399
      ],
      [
        "7",
        -5.9573642183777
      ],
      [
        "CommRing",
        -6.088426750951582
      ],
      [
        "AddCommGroup",
        -6.118752342289866
      ],
      [
        "â",
        -6.143991881070789
      ],
      [
        "NonAssocSemiring",
        -6.2017637013607025
      ],
      [
        "8",
        -6.304385686754623
      ],
      [
        "NormedField",
        -6.368884709944014
      ],
      [
        "Ġ(@",
        -6.41990269202247
      ],
      [
        "[",
        -6.448429004736818
      ],
      [
        "Ĩ",
        -6.497540786003343
      ],
      [
        "Ĵ",
        -6.49772213039056
      ],
      [
        "))))",
        -6.504094369324303
      ],
      [
        ")))",
        -6.5155038468498
      ],
      [
        "]",
        -6.522211807103327
      ],
      [
        "9",
        -6.613643222279213
      ],
      [
        "seudoMetricSpace",
        -6.628274797568006
      ],
      [
        "UniformSpace",
        -6.655690263549408
      ],
      [
        "to",
        -6.704679640796137
      ],
      [
        "Nat",
        -6.7336995891395865
      ],
      [
        "=",
        -6.790907215347101
      ],
      [
        ">",
        -6.7923230872483416
      ],
      [
        "fun",
        -6.793039589549695
      ],
      [
        "y",
        -6.809750315342216
      ],
      [
        "Real",
        -6.81319363110892
      ],
      [
        "Functor",
        -6.814142232479549
      ],
      [
        "toNonUnital",
        -6.856282261756064
      ],
      [
        "Field",
        -6.858895001663543
      ],
      [
        "NonUnital",
        -6.914556073294783
      ],
      [
        "toAddCommMonoid",
        -6.967303123979001
      ],
      [
        "ĠReal",
        -6.9788247513605555
      ],
      [
        "TopologicalSpace",
        -6.989140098917183
      ],
      [
        "CategoryStruct",
        -6.990972475059998
      ],
      [
        "N",
        -7.0070706218489835
      ],
      [
        "Category",
        -7.031042438840679
      ],
      [
        "P",
        -7.043608867377612
      ],
      [
        "lit",
        -7.049037513413452
      ],
      [
        "nat",
        -7.062459657903549
      ],
      [
        "toSeminormed",
        -7.062971428653659
      ],
      [
        "Ring",
        -7.084424996788966
      ],
      [
        "field",
        -7.095511282476149
      ],
      [
        "Set",
        -7.105224361472731
      ],
      [
        "Monoid",
        -7.184661575524155
      ],
      [
        "inst",
        -7.194771371367935
      ],
      [
        "Seminormed",
        -7.22120597248661
      ],
      [
        "AddCommMonoid",
        -7.240981831331396
      ],
      [
        ")))))",
        -7.290903077261046
      ],
      [
        "Type",
        -7.3390233175863155
      ],
      [
        "rmedAddCommGroup",
        -7.345401666422843
      ],
      [
        "Ī",
        -7.346040265695011
      ],
      [
        "Ģ",
        -7.346506589668259
      ],
      [
        "Geometr",
        -7.350218082731672
      ],
      [
        "c",
        -7.358839701938072
      ],
      [
        "ĠType",
        -7.360755426165197
      ],
      [
        "toP",
        -7.380249963523026
      ],
      [
        "ĠNat",
        -7.423440505625042
      ],
      [
        "Quiver",
        -7.435463091488893
      ],
      [
        "i",
        -7.440614859056364
      ],
      [
        "Algebraic",
        -7.464942115922003
      ],
      [
        "arrier",
        -7.481663844196266
      ],
      [
        "Algebra",
        -7.488404256045868
      ],
      [
        "OfNat",
        -7.494929860081426
      ],
      [
        "ofNat",
        -7.552340980575856
      ],
      [
        "instCategory",
        -7.557621644948565
      ],
      [
        "AddZeroClass",
        -7.563294410721111
      ],
      [
        "Limits",
        -7.617378948519972
      ],
      [
        "Preorder",
        -7.620688512679623
      ],
      [
        "AddMonoid",
        -7.623727510276435
      ],
      [
        "Eq",
        -7.637036783852878
      ],
      [
        "CommRingCat",
        -7.657463822281901
      ],
      [
        "l",
        -7.662054356258022
      ],
      [
        "toAddMonoid",
        -7.69276917780193
      ],
      [
        "Semi",
        -7.695232202206752
      ],
      [
        "toModule",
        -7.702711384566209
      ],
      [
        "NonAssocRing",
        -7.71194030037454
      ],
      [
        "toDivision",
        -7.712341233370749
      ],
      [
        "PartialOrder",
        -7.720965286127459
      ],
      [
        "toSemi",
        -7.748042559268496
      ],
      [
        "toMonoid",
        -7.8072330760058595
      ],
      [
        "TopCat",
        -7.825091174612153
      ],
      [
        "Measure",
        -7.82733436095622
      ],
      [
        "Hom",
        -7.851244011688731
      ],
      [
        "NormedCommRing",
        -7.8651393876290445
      ],
      [
        "Complex",
        -7.884753976428982
      ],
      [
        "d",
        -7.886747458335037
      ],
      [
        "CommMonoid",
        -7.888816606580866
      ],
      [
        "Nontrivial",
        -7.9054873041385
      ],
      [
        "Prod",
        -7.9226773444665035
      ],
      [
        "))))))",
        -7.942748287814069
      ],
      [
        "NormedSpace",
        -7.952471115266231
      ],
      [
        "MulOneClass",
        -7.955904958234733
      ],
      [
        "Division",
        -7.957161022126071
      ],
      [
        "edAddCommGroup",
        -7.959595895646075
      ],
      [
        "e",
        -7.9843568788432755
      ],
      [
        "Fin",
        -7.988609780130547
      ],
      [
        "ĠComplex",
        -7.997068183133967
      ],
      [
        "AddGroup",
        -7.999336660965021
      ],
      [
        "Polynomial",
        -8.012799349142597
      ],
      [
        "Normed",
        -8.028484919158968
      ],
      [
        "Membership",
        -8.039491302492863
      ],
      [
        "instMembership",
        -8.044835922837638
      ],
      [
        "RingHom",
        -8.059256837911077
      ],
      [
        "Int",
        -8.074307455553239
      ],
      [
        "n",
        -8.081953258136915
      ],
      [
        "s",
        -8.08226937818584
      ],
      [
        "Opposite",
        -8.091896396480807
      ],
      [
        "Module",
        -8.103513805042764
      ],
      [
        "category",
        -8.104289283079979
      ],
      [
        "obj",
        -8.111456411749911
      ],
      [
        "toRing",
        -8.114259682055357
      ],
      [
        "L",
        -8.159054059013751
      ],
      [
        "m",
        -8.16952543591583
      ],
      [
        "SeminormedRing",
        -8.17008399103755
      ],
      [
        "RCLike",
        -8.190203437458779
      ],
      [
        "ĠInt",
        -8.202581165625542
      ],
      [
        "Finset",
        -8.202731590036377
      ],
      [
        "Subtype",
        -8.207308911421483
      ],
      [
        "mem",
        -8.229637368446289
      ],
      [
        "ENNReal",
        -8.243600898503802
      ],
      [
        "SemilatticeInf",
        -8.2650528744884
      ],
      [
        "p",
        -8.274422944978511
      ],
      [
        "MonoidalCategory",
        -8.289095058529789
      ],
      [
        "Scheme",
        -8.293203764864566
      ],
      [
        "toAddZero",
        -8.311246742390336
      ],
      [
        "DivInvMonoid",
        -8.312525097425127
      ],
      [
        "Submodule",
        -8.31537061912367
      ],
      [
        "toZero",
        -8.326966919684827
      ],
      [
        "T",
        -8.369716320234394
      ],
      [
        "OfNatNat",
        -8.370300021484349
      ],
      [
        "toAddGroup",
        -8.373883472922808
      ],
      [
        "CommGroup",
        -8.38920922975353
      ],
      [
        "SetLike",
        -8.392396602479954
      ],
      [
        "I",
        -8.425608486808297
      ],
      [
        "MonoidWithZero",
        -8.43921032394085
      ],
      [
        "coe",
        -8.439363339027748
      ],
      [
        "SMul",
        -8.446376442068624
      ],
      [
        "WithOne",
        -8.459597200338848
      ],
      [
        "Group",
        -8.460324903436774
      ],
      [
        "LinearMap",
        -8.469956933180153
      ],
      [
        "DistribMulAction",
        -8.47739636044206
      ],
      [
        "h",
        -8.480400626623357
      ],
      [
        "MulZeroClass",
        -8.489708844773164
      ],
      [
        "DistribLattice",
        -8.496955126948352
      ],
      [
        "toMonoidWithZero",
        -8.5021106239349
      ],
      [
        "Densely",
        -8.506988785185573
      ],
      [
        "toAddCommGroup",
        -8.50974636704545
      ],
      [
        "Equiv",
        -8.510648021759982
      ],
      [
        "Number",
        -8.511135662966359
      ],
      [
        "ModuleCat",
        -8.51336909330932
      ],
      [
        "toAdd",
        -8.520263785789973
      ],
      [
        ")))))))",
        -8.520415210495534
      ],
      [
        "f",
        -8.534938494791344
      ],
      [
        "Theor",
        -8.53516333631165
      ],
      [
        "comp",
        -8.538999167719597
      ],
      [
        "Lattice",
        -8.546953984476833
      ],
      [
        "DFunLike",
        -8.54984755141235
      ],
      [
        "))",
        -8.555549373866343
      ],
      [
        "instSetLike",
        -8.590355554496169
      ],
      [
        "Bicategory",
        -8.604061676829149
      ],
      [
        "str",
        -8.610018663853497
      ],
      [
        "opposite",
        -8.61560167475243
      ],
      [
        "toMulOne",
        -8.629840402134079
      ],
      [
        "toDistrib",
        -8.647704455772143
      ],
      [
        "callyRingedSpace",
        -8.65677393971407
      ],
      [
        "Distrib",
        -8.679434389602273
      ],
      [
        "toDensely",
        -8.689796380346914
      ],
      [
        "a",
        -8.705528527256563
      ],
      [
        "onUnitalNonAssoc",
        -8.708953387562655
      ],
      [
        "S",
        -8.713671178170218
      ],
      [
        "M",
        -8.71975213121098
      ],
      [
        "oOfNat",
        -8.720158791079994
      ],
      [
        "ly",
        -8.721300032136618
      ],
      [
        "C",
        -8.726016414449727
      ],
      [
        "Subgroup",
        -8.77501721150168
      ],
      [
        "Opens",
        -8.782335864745123
      ],
      [
        "Ġ_))",
        -8.791014393356198
      ],
      [
        "Preadditive",
        -8.796634028465627
      ],
      [
        "toSubNeg",
        -8.801321352626204
      ],
      [
        "AddSubgroup",
        -8.804321702054546
      ],
      [
        "HAdd",
        -8.820168240241703
      ],
      [
        "SubNeg",
        -8.820447102229322
      ],
      [
        "Norm",
        -8.837574612974759
      ],
      [
        "Zero",
        -8.839306846063062
      ],
      [
        "TensorProduct",
        -8.839766574017489
      ],
      [
        "MvPolynomial",
        -8.84101019230227
      ],
      [
        "SMulZeroClass",
        -8.843141352000046
      ],
      [
        "instFunLike",
        -8.844996293807693
      ],
      [
        "AddZero",
        -8.847620565556527
      ],
      [
        "toLattice",
        -8.84979936180006
      ],
      [
        "oLE",
        -8.902523607386872
      ],
      [
        "instHAdd",
        -8.903840819689657
      ],
      [
        "hAdd",
        -8.904602979022192
      ],
      [
        "HasZeroMorphisms",
        -8.904725962838116
      ],
      [
        "id",
        -8.90558641637671
      ],
      [
        "module",
        -8.91917375121697
      ],
      [
        "Ideal",
        -8.939573804588811
      ],
      [
        "toMul",
        -8.95018529108618
      ],
      [
        "semiring",
        -8.986940396232644
      ],
      [
        "ShortComplex",
        -9.025304994316148
      ],
      [
        "toNormed",
        -9.027276596987093
      ],
      [
        "instOfNat",
        -9.03007068896883
      ],
      [
        "Domain",
        -9.030166649568606
      ],
      [
        "Add",
        -9.045454310591065
      ],
      [
        "toSMul",
        -9.045596471427125
      ],
      [
        "LE",
        -9.051572597932184
      ],
      [
        "PresheafedSpace",
        -9.05462473153837
      ],
      [
        "Filter",
        -9.065271983290495
      ],
      [
        "Matrix",
        -9.080250437058455
      ],
      [
        "Subalgebra",
        -9.087392062251165
      ],
      [
        "RingOfIntegers",
        -9.088298903181839
      ],
      [
        "NonUnitalNormed",
        -9.093104087333531
      ],
      [
        "NNReal",
        -9.10093845811621
      ],
      [
        "Continuous",
        -9.101518684741553
      ],
      [
        "Seminorm",
        -9.102101623219141
      ],
      [
        "DivisionRing",
        -9.107697454626141
      ],
      [
        "toSeminorm",
        -9.124380690310618
      ],
      [
        "preadditive",
        -9.127254694526929
      ],
      [
        "Semigroup",
        -9.147961425888509
      ],
      [
        "MulZeroOneClass",
        -9.15029612503432
      ],
      [
        "List",
        -9.192954109408122
      ],
      [
        "types",
        -9.201068706887495
      ],
      [
        "Mul",
        -9.205977574242667
      ],
      [
        "alCategoryStruct",
        -9.206552149602526
      ],
      [
        "CompleteLattice",
        -9.207351605958099
      ],
      [
        "X",
        -9.209167516058715
      ],
      [
        "SheafedSpace",
        -9.212261776487981
      ],
      [
        "root",
        -9.225900043664806
      ],
      [
        "nnerProductSpace",
        -9.236913891952128
      ],
      [
        "PUnit",
        -9.240354869722577
      ],
      [
        "ĠSimplexCategory",
        -9.242607921281351
      ],
      [
        "AEEqFun",
        -9.253278311616155
      ],
      [
        "OfLinearOrder",
        -9.256720364440902
      ],
      [
        "Function",
        -9.275820488886446
      ],
      [
        "))))))))",
        -9.2862395716843
      ],
      [
        "toCommMonoid",
        -9.29377677511024
      ],
      [
        "Class",
        -9.303551397849134
      ],
      [
        "toCommRing",
        -9.304459500863482
      ],
      [
        "Cat",
        -9.307918526290154
      ],
      [
        "ENat",
        -9.316277336894341
      ],
      [
        "Quotient",
        -9.328799825219708
      ],
      [
        "toSeminormedAdd",
        -9.32927181016458
      ],
      [
        "pro",
        -9.330072207569563
      ],
      [
        "Order",
        -9.33762283993793
      ],
      [
        "mk",
        -9.34122056476534
      ],
      [
        "instAdd",
        -9.357851181217512
      ],
      [
        "Units",
        -9.360137011718548
      ],
      [
        "Discrete",
        -9.361419841207528
      ],
      [
        "NegZeroClass",
        -9.362262395207363
      ],
      [
        "SubNegZeroMonoid",
        -9.362909026088236
      ],
      [
        "toSheafedSpace",
        -9.379726777736817
      ],
      [
        "MonoidWithOne",
        -9.389407771750498
      ],
      [
        "Ordinal",
        -9.389716702691178
      ],
      [
        "toESeminormed",
        -9.395377017194045
      ],
      [
        "ESeminormed",
        -9.398555789370171
      ],
      [
        "toAddRightCancel",
        -9.406973762710289
      ],
      [
        "AddCancelMonoid",
        -9.410698665416113
      ],
      [
        "addCommMonoid",
        -9.412614769034493
      ],
      [
        "H",
        -9.423326148559363
      ],
      [
        "ubtractionMonoid",
        -9.444513276626123
      ],
      [
        "SemilatticeSup",
        -9.455889798842229
      ],
      [
        "oPresheafedSpace",
        -9.456149122118362
      ],
      [
        "AddRightCancel",
        -9.456633897046713
      ],
      [
        "instSemiring",
        -9.458904398920637
      ],
      [
        "AddCommGrpCat",
        -9.461385130933804
      ],
      [
        "Finsupp",
        -9.462469655445686
      ],
      [
        "RingCat",
        -9.462570657779995
      ],
      [
        "MeasurableSpace",
        -9.4738184752359
      ],
      [
        "SeminormedAdd",
        -9.47743192112041
      ],
      [
        "toNonUnitalNo",
        -9.479715121465318
      ],
      [
        "toENormed",
        -9.48221255792477
      ],
      [
        "Wit",
        -9.487271969971605
      ],
      [
        "Iff",
        -9.491709158937859
      ],
      [
        "MulOpposite",
        -9.494193675843869
      ],
      [
        "tVector",
        -9.494494364310494
      ],
      [
        "Submonoid",
        -9.503507999607619
      ],
      [
        "Complete",
        -9.50471332632399
      ],
      [
        "ormedRing",
        -9.509046636145804
      ],
      [
        "HMul",
        -9.511163486163067
      ],
      [
        "Top",
        -9.520222626551137
      ],
      [
        "Struct",
        -9.527693590673941
      ],
      [
        "Sum",
        -9.52787673361049
      ],
      [
        "instHMul",
        -9.533976367578337
      ],
      [
        "r",
        -9.542942226876827
      ],
      [
        "ntermediateField",
        -9.545085040140517
      ],
      [
        "With",
        -9.552789680766644
      ],
      [
        "ENormed",
        -9.556756210815609
      ],
      [
        "ormedField",
        -9.566904030727123
      ],
      [
        "ĠAlgebraic",
        -9.569786362025168
      ],
      [
        "ESeminormedAdd",
        -9.571455338467032
      ],
      [
        "Extension",
        -9.573318087795833
      ],
      [
        "map",
        -9.576384383220473
      ],
      [
        "NormedAddGroup",
        -9.578934891242778
      ],
      [
        "MulOne",
        -9.585544013272585
      ],
      [
        "'.{",
        -9.590114826304612
      ],
      [
        "smallCategory",
        -9.590572925402883
      ],
      [
        "Over",
        -9.592305867378744
      ],
      [
        "Topology",
        -9.594502193329248
      ],
      [
        "InfinitePlace",
        -9.598025026912207
      ],
      [
        "toESeminormedAdd",
        -9.603195615117734
      ],
      [
        "instCommRing",
        -9.608301962259981
      ],
      [
        "tensorObj",
        -9.610821787929567
      ],
      [
        "One",
        -9.629710246300355
      ],
      [
        "Cartesian",
        -9.630825805111352
      ],
      [
        "commRing",
        -9.63281863082708
      ],
      [
        "rmedRing",
        -9.634396476763312
      ],
      [
        "BooleanAlgebra",
        -9.642720755503978
      ],
      [
        "Euclidean",
        -9.644639390929443
      ],
      [
        "instPartialOrder",
        -9.646245432562713
      ],
      [
        "Multiplicative",
        -9.649683142220633
      ],
      [
        "hom",
        -9.660240736346047
      ],
      [
        "instRing",
        -9.665658965127252
      ],
      [
        "Ġ_)))",
        -9.667887194913503
      ],
      [
        "instZero",
        -9.682817444707505
      ],
      [
        "MetricSpace",
        -9.686190916125815
      ],
      [
        "toLo",
        -9.692626078183856
      ],
      [
        "instCommSemiring",
        -9.694469448674758
      ],
      [
        "Elem",
        -9.695239681158752
      ],
      [
        "prod",
        -9.703263533679536
      ],
      [
        "toMonoidal",
        -9.711489172300364
      ],
      [
        "Action",
        -9.713107860933185
      ],
      [
        "Iso",
        -9.714181478215291
      ],
      [
        "GroupWithOne",
        -9.717390016121131
      ],
      [
        "MonoidHom",
        -9.737564396276268
      ],
      [
        "WithZero",
        -9.739746836056272
      ],
      [
        "toOne",
        -9.740113616388745
      ],
      [
        "k",
        -9.740784830030407
      ],
      [
        "ENormedAdd",
        -9.746377589944231
      ],
      [
        "Free",
        -9.754523396703089
      ],
      [
        "ZMod",
        -9.756261184850253
      ],
      [
        "toEuclidean",
        -9.76016213948991
      ],
      [
        "discrete",
        -9.760246514753959
      ],
      [
        "SSet",
        -9.765011742421446
      ],
      [
        "instModule",
        -9.77593924071428
      ],
      [
        "Div",
        -9.776383871039108
      ],
      [
        "F",
        -9.777117830382604
      ],
      [
        "Prop",
        -9.779305889985903
      ],
      [
        "HSub",
        -9.779688925141967
      ],
      [
        "toIsTopological",
        -9.789185173576291
      ],
      [
        "age",
        -9.79205356492793
      ],
      [
        "AddTorsor",
        -9.794786354221657
      ],
      [
        "FunLike",
        -9.794830978044377
      ],
      [
        "val",
        -9.795831606212763
      ],
      [
        "W",
        -9.799674701105609
      ],
      [
        "ContinuousMap",
        -9.821883663236951
      ],
      [
        "instAddGroup",
        -9.82716876708116
      ],
      [
        "AddMonoidHom",
        -9.834152279636326
      ],
      [
        "angu",
        -9.838341631729728
      ],
      [
        "toENormedAdd",
        -9.839155591038866
      ],
      [
        "SimpleGraph",
        -9.84098575864335
      ],
      [
        "ompHausLike",
        -9.855585901791207
      ],
      [
        "Condition",
        -9.85829286691309
      ],
      [
        "Abelian",
        -9.861220544224194
      ],
      [
        "instAddCommGroup",
        -9.882296322226182
      ],
      [
        "Sort",
        -9.88236364254358
      ],
      [
        "A",
        -9.884341767428213
      ],
      [
        "vPair",
        -9.887895112042976
      ],
      [
        "Pair",
        -9.893271852175086
      ],
      [
        "toL",
        -9.896873170244616
      ],
      [
        "Ġ[_",
        -9.89757510993325
      ],
      [
        "âĤĤ",
        -9.905218658204506
      ],
      [
        "First",
        -9.906635939308154
      ],
      [
        "EquivLike",
        -9.916164814649495
      ],
      [
        "instNormedField",
        -9.922408397204114
      ],
      [
        "ologicalComplex",
        -9.922577441429016
      ],
      [
        "instEquivLike",
        -9.926182282183955
      ],
      [
        "E",
        -9.926997983710066
      ],
      [
        "Walking",
        -9.939023993446286
      ],
      [
        "RingHomI",
        -9.940043078412613
      ],
      [
        "rimeSpectrum",
        -9.941179475933337
      ],
      [
        "MulAction",
        -9.94346511548688
      ],
      [
        "ormedCommRing",
        -9.946120504559131
      ],
      [
        "LT",
        -9.960271951826476
      ],
      [
        "smulCommClass",
        -9.961757367650044
      ],
      [
        "No",
        -9.963767306692393
      ],
      [
        "instMul",
        -9.977198110515097
      ],
      [
        "ĠinstAdd",
        -9.97977703606762
      ],
      [
        "PowerSeries",
        -9.990259814244583
      ],
      [
        "Grothendieck",
        -9.992825566915267
      ],
      [
        "allyComplete",
        -9.997389422705291
      ],
      [
        "And",
        -10.002292640227438
      ],
      [
        "ArchimedeanClass",
        -10.006687291080436
      ],
      [
        "Sigma",
        -10.00739630423179
      ],
      [
        "Monoidal",
        -10.0200613008009
      ],
      [
        "instPreorder",
        -10.023371418186006
      ],
      [
        "Perm",
        -10.02794531845747
      ],
      [
        "Cardinal",
        -10.03113366097124
      ],
      [
        "NonAssoc",
        -10.040114321301736
      ],
      [
        "PGame",
        -10.041312969213273
      ],
      [
        "Subtraction",
        -10.041463600233673
      ],
      [
        "ultiset",
        -10.042361935239798
      ],
      [
        "AddSemigroup",
        -10.043085529132108
      ],
      [
        "onUnitalCommRing",
        -10.048897571589697
      ],
      [
        "left",
        -10.052475755866377
      ],
      [
        "SimplexCategory",
        -10.05744523338244
      ],
      [
        "))]",
        -10.064535286629129
      ],
      [
        "AddSubmonoid",
        -10.06507486926025
      ],
      [
        "ĠRat",
        -10.06632529870899
      ],
      [
        "toN",
        -10.073053402733805
      ],
      [
        "instLE",
        -10.073703671965063
      ],
      [
        "Pow",
        -10.073726684129094
      ],
      [
        "unop",
        -10.079490267471062
      ],
      [
        "ComplexShape",
        -10.083289725598053
      ],
      [
        "orphismProperty",
        -10.083728609582133
      ],
      [
        "Pretriangulated",
        -10.094434617888787
      ],
      [
        "IsScalarTower",
        -10.094515601298468
      ],
      [
        "toAddSemigroup",
        -10.104117694805534
      ],
      [
        "MonCat",
        -10.105977976919018
      ],
      [
        "LinearOrder",
        -10.11125282469453
      ],
      [
        "D",
        -10.111306255660777
      ],
      [
        "HPow",
        -10.117979080515184
      ],
      [
        "OrderDual",
        -10.121126774625017
      ],
      [
        "instHPow",
        -10.123362630214226
      ],
      [
        "instOne",
        -10.124575588350076
      ],
      [
        "fst",
        -10.126333090256072
      ],
      [
        "NonUnitalNo",
        -10.129754734463159
      ],
      [
        "WithTop",
        -10.130929524777985
      ],
      [
        "Comma",
        -10.133242081729327
      ],
      [
        "GrpCat",
        -10.143136512524197
      ],
      [
        "SetT",
        -10.159790104754768
      ],
      [
        "Equivalence",
        -10.163154795131637
      ],
      [
        "GroupWithZero",
        -10.165621803957261
      ],
      [
        "AddCommMagma",
        -10.168582783140042
      ],
      [
        "Pullback",
        -10.171825989262524
      ],
      [
        "succ",
        -10.174037485198623
      ],
      [
        "toMulAction",
        -10.181294541706263
      ],
      [
        "IsTopological",
        -10.183904132820963
      ],
      [
        "Subring",
        -10.184237793612429
      ],
      [
        "toNo",
        -10.186947812849576
      ],
      [
        "Exists",
        -10.187793915791245
      ],
      [
        "CStarAlgebra",
        -10.19068269221029
      ],
      [
        "Object",
        -10.196959494741355
      ],
      [
        "ĠFin",
        -10.206149408822407
      ],
      [
        "Sheaf",
        -10.21139648110195
      ],
      [
        "AddCommSemigroup",
        -10.220435106248502
      ],
      [
        "Embedding",
        -10.227031380014145
      ],
      [
        "AlgHom",
        -10.23667798842048
      ],
      [
        "G",
        -10.24436141815322
      ],
      [
        "InvolutiveStar",
        -10.255284612728214
      ],
      [
        "Initial",
        -10.260511939982582
      ],
      [
        "toS",
        -10.26212661564965
      ],
      [
        "nAssocSemiring",
        -10.264919695798328
      ],
      [
        ")))))))))",
        -10.28184524873418
      ],
      [
        "toSemigroup",
        -10.282940895134676
      ],
      [
        "Sub",
        -10.286391817594053
      ],
      [
        "functor",
        -10.288759547533802
      ],
      [
        "Map",
        -10.29351867494631
      ],
      [
        "instMonoid",
        -10.305677074405473
      ],
      [
        "etLike",
        -10.306879947618391
      ],
      [
        "cast",
        -10.309056664325226
      ],
      [
        "toStar",
        -10.317359064402014
      ],
      [
        "CancelCommMonoid",
        -10.318797988628646
      ],
      [
        "HSMul",
        -10.318970969778489
      ],
      [
        "instHSMul",
        -10.320585377086296
      ],
      [
        "snd",
        -10.323324715392692
      ],
      [
        "Cone",
        -10.32896238728038
      ],
      [
        "Subsemiring",
        -10.33308520571037
      ],
      [
        "toNorm",
        -10.335606668657165
      ],
      [
        "Idempotent",
        -10.339102226144748
      ],
      [
        "top",
        -10.34080581920362
      ],
      [
        "OrderBot",
        -10.344792176031456
      ],
      [
        "Generators",
        -10.34596443023564
      ],
      [
        "Quadratic",
        -10.346916687916062
      ],
      [
        "b",
        -10.353290136031637
      ],
      [
        "instH",
        -10.365889718856284
      ],
      [
        "NormedAdd",
        -10.371201976376884
      ],
      [
        "Space",
        -10.373675718759637
      ],
      [
        "toNontrivial",
        -10.375065239980534
      ],
      [
        "DecidableEq",
        -10.376258673844301
      ],
      [
        "mologicalComplex",
        -10.376448565633732
      ],
      [
        "Padic",
        -10.377311728540246
      ],
      [
        "Karoubi",
        -10.380310991204071
      ],
      [
        "Probability",
        -10.380776762318858
      ],
      [
        "PreLp",
        -10.385253889790341
      ],
      [
        "hSub",
        -10.386561453722612
      ],
      [
        "LieRing",
        -10.386801737881582
      ],
      [
        "Is",
        -10.396614172942558
      ],
      [
        "NonUnitalRing",
        -10.40260887090543
      ],
      [
        "Mon",
        -10.412871023333478
      ],
      [
        "inv",
        -10.414470712593934
      ],
      [
        "v",
        -10.422234401355489
      ],
      [
        "instAlgebra",
        -10.425127072950117
      ],
      [
        "toTop",
        -10.427154684027137
      ],
      [
        "HasQuotient",
        -10.428123475924089
      ],
      [
        "ieAlgebra",
        -10.428786112055624
      ],
      [
        "Categorical",
        -10.429998982397862
      ],
      [
        "Homotopic",
        -10.43037836830858
      ],
      [
        "Option",
        -10.435153222516465
      ],
      [
        "MonoidAlgebra",
        -10.436164096194652
      ],
      [
        "Property",
        -10.436247285645889
      ],
      [
        "eLocalization",
        -10.436754139288864
      ],
      [
        ")))]",
        -10.438186457314686
      ],
      [
        "âĤģ",
        -10.44218636086662
      ],
      [
        "AtLeastTwo",
        -10.444106913011616
      ],
      [
        "fintype",
        -10.44730499693034
      ],
      [
        "Ġâĭ¯",
        -10.451095768048205
      ],
      [
        "))))]",
        -10.451156997279483
      ],
      [
        "NatPow",
        -10.451833891784313
      ],
      [
        "ĠFintypeCat",
        -10.46179328601741
      ],
      [
        "Form",
        -10.46305655110506
      ],
      [
        "CommGrpCat",
        -10.470478507709078
      ],
      [
        "Or",
        -10.472602556239853
      ],
      [
        "ommSemiring",
        -10.478566188279792
      ],
      [
        "Localization",
        -10.496343226842468
      ],
      [
        "R",
        -10.500604276230197
      ],
      [
        "Terminal",
        -10.51796003626834
      ],
      [
        "Grp",
        -10.519395545074714
      ],
      [
        "Triangle",
        -10.51971987598185
      ],
      [
        "Finite",
        -10.52210483679949
      ],
      [
        "AddMonCat",
        -10.5226462489725
      ],
      [
        "symm",
        -10.523093149789512
      ],
      [
        "range",
        -10.527656195447575
      ],
      [
        "toComplete",
        -10.530595692764436
      ],
      [
        "O",
        -10.531590142396912
      ],
      [
        "Neg",
        -10.53336470922578
      ],
      [
        "instNeZero",
        -10.540082890410691
      ],
      [
        "lAlgebra",
        -10.545902878634095
      ],
      [
        "toGroup",
        -10.546266265608933
      ],
      [
        "singleton",
        -10.550620568194867
      ],
      [
        "ValuationSubring",
        -10.553098406874907
      ],
      [
        "Singleton",
        -10.553285240954086
      ],
      [
        "Ġ_)))))",
        -10.557703454515034
      ],
      [
        "Truncated",
        -10.557791657010199
      ],
      [
        "WalkingPa",
        -10.559927289033986
      ],
      [
        "Cocone",
        -10.562327494588235
      ],
      [
        "Affine",
        -10.562825352658953
      ],
      [
        "Subfield",
        -10.56308814569166
      ],
      [
        "reZeroHypercover",
        -10.564586712604887
      ],
      [
        "End",
        -10.570190633634077
      ],
      [
        "right",
        -10.578708179713537
      ],
      [
        "LinearEquiv",
        -10.580684760360857
      ],
      [
        "self",
        -10.582979908568786
      ],
      [
        "Succ",
        -10.588511225951962
      ],
      [
        "Unit",
        -10.588684041349078
      ],
      [
        "neg",
        -10.590688759222726
      ],
      [
        "instHasQuotient",
        -10.594585040528974
      ],
      [
        "Star",
        -10.599126968607628
      ],
      [
        "instLT",
        -10.605595860525526
      ],
      [
        "MultilinearMap",
        -10.612296980133006
      ],
      [
        "AffineSubspace",
        -10.614450079131563
      ],
      [
        "instAddMonoid",
        -10.61643999555643
      ],
      [
        "'",
        -10.618118184428873
      ],
      [
        "VAdd",
        -10.623625089567112
      ],
      [
        "instGroup",
        -10.629262865517159
      ],
      [
        "algebra",
        -10.63201735732729
      ],
      [
        "Box",
        -10.633579915861963
      ],
      [
        "Lat",
        -10.633920981895539
      ],
      [
        "Bot",
        -10.634847901675347
      ],
      [
        "CliffordAlgebra",
        -10.635368146082751
      ],
      [
        "Exterior",
        -10.637027585167875
      ],
      [
        "CommMonCat",
        -10.641818949424586
      ],
      [
        "partialOrder",
        -10.64467392227134
      ],
      [
        "AddGrpCat",
        -10.647975371544135
      ],
      [
        "zero",
        -10.649007351649574
      ],
      [
        "Coheyting",
        -10.649826704706705
      ],
      [
        "CatCommSq",
        -10.65998524488346
      ],
      [
        "Series",
        -10.670779162313728
      ],
      [
        "tinuousConstSMul",
        -10.672758658477465
      ],
      [
        "WithBot",
        -10.675709255430228
      ],
      [
        "Subset",
        -10.688290103227205
      ],
      [
        "densely",
        -10.688806408682074
      ],
      [
        "ubsemigroup",
        -10.691006887317075
      ],
      [
        "ring",
        -10.691323667361296
      ],
      [
        "B",
        -10.692019594357726
      ],
      [
        "InvOneClass",
        -10.695498101274774
      ],
      [
        "Rat",
        -10.698020943530858
      ],
      [
        "DivInvOneMonoid",
        -10.699117901054272
      ],
      [
        "Presentation",
        -10.702890215190797
      ],
      [
        "SimplicialObject",
        -10.70547856575595
      ],
      [
        "norm",
        -10.711904933608304
      ],
      [
        "Atomic",
        -10.720562731693757
      ],
      [
        "Spec",
        -10.72215520428406
      ],
      [
        "Prefunctor",
        -10.723292163505532
      ],
      [
        "CommAlgCat",
        -10.7237166525475
      ],
      [
        "Totally",
        -10.725582830253442
      ],
      [
        "ĠSet",
        -10.726336554262499
      ],
      [
        "unLike",
        -10.727297453072
      ],
      [
        "Rel",
        -10.744714471767585
      ],
      [
        "Bialgebra",
        -10.746050588419557
      ],
      [
        "isconnectedSpace",
        -10.749207276208889
      ],
      [
        "Bundle",
        -10.752058246133066
      ],
      [
        "nstAddCommMonoid",
        -10.753733582343678
      ],
      [
        "Hahn",
        -10.756512099285636
      ],
      [
        "Kernel",
        -10.772606441686865
      ],
      [
        "ocallyDiscrete",
        -10.774597240641256
      ],
      [
        "NatTrans",
        -10.776346471493083
      ],
      [
        "toAlgebra",
        -10.790518487112845
      ],
      [
        "tensorUnit",
        -10.804340671425985
      ],
      [
        "(@",
        -10.804392485900417
      ],
      [
        "NonAssocComm",
        -10.806574911803729
      ],
      [
        "instDecidableEq",
        -10.806683913204338
      ],
      [
        "Arrow",
        -10.810571522272795
      ],
      [
        "GradedObject",
        -10.8108671443969
      ],
      [
        "StarRing",
        -10.81165407709024
      ],
      [
        "HasSubset",
        -10.81398863281437
      ],
      [
        "Ġâĭ¯)",
        -10.81500959543781
      ],
      [
        "SingletonSet",
        -10.81559126339383
      ],
      [
        "AlgEquiv",
        -10.816026357253955
      ],
      [
        "instLinearOrder",
        -10.81990130464957
      ],
      [
        "Ho",
        -10.821266927655184
      ],
      [
        "nAssocRing",
        -10.82376915495674
      ],
      [
        "ĠBool",
        -10.826782580418454
      ],
      [
        "ĠCompHaus",
        -10.828004352322619
      ],
      [
        "x",
        -10.828717634267626
      ],
      [
        "Coalgebra",
        -10.830810473145968
      ],
      [
        "instHasSubset",
        -10.83586981739885
      ],
      [
        "addCommGroup",
        -10.840167579568325
      ],
      [
        "card",
        -10.84176084981989
      ],
      [
        "Nonempty",
        -10.844852926391066
      ],
      [
        "Comm",
        -10.847054543813645
      ],
      [
        "sum",
        -10.847743260464538
      ],
      [
        "shiftFunctor",
        -10.853048406026177
      ],
      [
        "AddAction",
        -10.85649914003607
      ],
      [
        "FractionRing",
        -10.858618120828076
      ],
      [
        "Omega",
        -10.860062152830618
      ],
      [
        "Differential",
        -10.866841447429646
      ],
      [
        "le",
        -10.873001097164337
      ],
      [
        "Monad",
        -10.876212586656505
      ],
      [
        "âĤĥ",
        -10.878281729857294
      ],
      [
        "NatCast",
        -10.881265942736313
      ],
      [
        "ProductSpaceReal",
        -10.890268240239465
      ],
      [
        "complex",
        -10.894051249008072
      ],
      [
        "span",
        -10.895308736012412
      ],
      [
        "Self",
        -10.896292101072808
      ],
      [
        "toIsRightCancel",
        -10.898233078088413
      ],
      [
        "PrelaxFunctor",
        -10.900185269645975
      ],
      [
        "instComplete",
        -10.9017052460666
      ],
      [
        "MonoidalOpposite",
        -10.906852665189954
      ],
      [
        "CochainComplex",
        -10.911744923584795
      ],
      [
        "app",
        -10.912183863817635
      ],
      [
        "LieSubmodule",
        -10.919988910609167
      ],
      [
        "nhds",
        -10.933122477216195
      ],
      [
        "Subobject",
        -10.937105413653988
      ],
      [
        "instNatCast",
        -10.939679896756633
      ],
      [
        "RootPairing",
        -10.947502335149444
      ],
      [
        "FullSubcategory",
        -10.948048524651437
      ],
      [
        "Inv",
        -10.94834235851658
      ],
      [
        "AddOpposite",
        -10.95067599576184
      ],
      [
        "g",
        -10.953575703511754
      ],
      [
        "Coprod",
        -10.955423182868453
      ],
      [
        "toFun",
        -10.956048556841107
      ],
      [
        "Additive",
        -10.964244561222145
      ],
      [
        "MulEquiv",
        -10.965769524385745
      ],
      [
        "PartOrd",
        -10.970871618473467
      ],
      [
        "nonZeroDivisors",
        -10.971364706425703
      ],
      [
        "toInner",
        -10.976495925546356
      ],
      [
        "Under",
        -10.979158417164033
      ],
      [
        "isModule",
        -10.980596883478125
      ],
      [
        "lueData",
        -10.981108472186722
      ],
      [
        "Ġâĭ¯]",
        -10.981641297636212
      ],
      [
        "Homological",
        -10.984717953646209
      ],
      [
        "Curve",
        -10.987039924113859
      ],
      [
        "q",
        -10.989290986916638
      ],
      [
        "Weierstrass",
        -10.991565969112099
      ],
      [
        "Turing",
        -10.992375922913975
      ],
      [
        "Param",
        -10.99294776869205
      ],
      [
        "image",
        -10.995058324561933
      ],
      [
        "tionallyComplete",
        -11.0041848748561
      ],
      [
        "toCond",
        -11.004625611798184
      ],
      [
        "toPrelaxFunctor",
        -11.017990997308992
      ],
      [
        "Cover",
        -11.018537953887629
      ],
      [
        "stabilizer",
        -11.024564714978993
      ],
      [
        "Ġ_))))",
        -11.024927516741315
      ],
      [
        "âĤĢ",
        -11.025907813316964
      ],
      [
        "AlgCat",
        -11.028546966157586
      ],
      [
        "Bounded",
        -11.031762518624578
      ],
      [
        "WalkingParallel",
        -11.03455968222401
      ],
      [
        "IsBounded",
        -11.036615484926607
      ],
      [
        "ENorm",
        -11.037552399694098
      ],
      [
        "instTop",
        -11.039942843566132
      ],
      [
        "QuadraticMap",
        -11.048281872986509
      ],
      [
        "Basis",
        -11.04920045415253
      ],
      [
        "Lex",
        -11.052929488020037
      ],
      [
        "Ġ_)]",
        -11.057872493396045
      ],
      [
        "Integral",
        -11.058408612427385
      ],
      [
        "Core",
        -11.059582687889982
      ],
      [
        "from",
        -11.067768834053288
      ],
      [
        "instPreadditive",
        -11.06960836758894
      ],
      [
        "AddEquiv",
        -11.086154111630401
      ],
      [
        "instSub",
        -11.0871396542036
      ],
      [
        "Partrec",
        -11.087860039708342
      ],
      [
        "))))))))))",
        -11.092068299083369
      ],
      [
        "const",
        -11.094727797821353
      ],
      [
        "Kaehler",
        -11.102616105532672
      ],
      [
        "EmptyCollection",
        -11.108523656014867
      ],
      [
        "HopfAlg",
        -11.112117943452434
      ],
      [
        "ConcreteCategory",
        -11.113136597707097
      ],
      [
        "Matroid",
        -11.114993502429963
      ],
      [
        "univ",
        -11.118027311684653
      ],
      [
        "MeasureSpace",
        -11.12167368645125
      ],
      [
        "ResidueField",
        -11.125896163766056
      ],
      [
        "ĠLinearOrder",
        -11.126528373663328
      ],
      [
        "Data",
        -11.128625676836378
      ],
      [
        "toExtension",
        -11.130742528961324
      ],
      [
        "some",
        -11.13132429514701
      ],
      [
        ".{",
        -11.13202161025675
      ],
      [
        "toNeg",
        -11.133827840840613
      ],
      [
        "DivisionMonoid",
        -11.138016850373244
      ],
      [
        "DFinsupp",
        -11.13823828991605
      ],
      [
        "AddCircle",
        -11.138513505432666
      ],
      [
        "toSub",
        -11.138799266838959
      ],
      [
        "ĠFintype",
        -11.141207013660589
      ],
      [
        "forget",
        -11.143615888581413
      ],
      [
        "BialgCat",
        -11.15013729180004
      ],
      [
        "ĠTru",
        -11.152632414510236
      ],
      [
        "toDiv",
        -11.154430554511553
      ],
      [
        "BoundedOrder",
        -11.155268003144071
      ],
      [
        "Pre",
        -11.15662528459907
      ],
      [
        "Fintype",
        -11.157049847456348
      ],
      [
        "Angle",
        -11.161482505082931
      ],
      [
        "Ġ_))))))",
        -11.162184908778672
      ],
      [
        "Join",
        -11.162228860455082
      ],
      [
        "argeCategory",
        -11.165336639780357
      ],
      [
        "IsLocalRing",
        -11.168851254142389
      ],
      [
        "Adj",
        -11.177398636686728
      ],
      [
        "has",
        -11.177409803497332
      ],
      [
        "Measurable",
        -11.17939094593259
      ],
      [
        "Sieve",
        -11.180718316573305
      ],
      [
        "toContinuousAdd",
        -11.185167879632225
      ],
      [
        "OuterMeasure",
        -11.185228390185381
      ],
      [
        "algCat",
        -11.185338750848478
      ],
      [
        "instField",
        -11.18562182079724
      ],
      [
        "add",
        -11.186706877277887
      ],
      [
        "Comonad",
        -11.186768542257958
      ],
      [
        "Heyting",
        -11.188997086424564
      ],
      [
        "moduleCat",
        -11.191665787786977
      ],
      [
        "NormedAlgebra",
        -11.192759321044134
      ],
      [
        "Con",
        -11.194989125257205
      ],
      [
        "OrderHom",
        -11.1970167748685
      ],
      [
        "inearOrderedComm",
        -11.20373165351149
      ],
      [
        "ĠNNRat",
        -11.208399489935193
      ],
      [
        "toInt",
        -11.20884982811583
      ],
      [
        "PartialEquiv",
        -11.209614009507595
      ],
      [
        "Injective",
        -11.224406707698634
      ],
      [
        "toNonUnitalRing",
        -11.22710091160737
      ],
      [
        "Comon",
        -11.229054687676793
      ],
      [
        "Valuation",
        -11.23398863523256
      ],
      [
        "Dual",
        -11.23645767922101
      ],
      [
        "RatFunc",
        -11.239037642483234
      ],
      [
        "Metric",
        -11.241094488258708
      ],
      [
        "SeminormedComm",
        -11.243313913073766
      ],
      [
        "real",
        -11.247790468449988
      ],
      [
        "IsStrictOrdered",
        -11.24844474746404
      ],
      [
        "topologicalSpace",
        -11.24867370323979
      ],
      [
        "RingEquiv",
        -11.252272783858457
      ],
      [
        "toPseudo",
        -11.254580270782494
      ],
      [
        "FreeMonoid",
        -11.254630120191198
      ],
      [
        "artialHomeomorph",
        -11.254630915645995
      ],
      [
        "Paths",
        -11.257746793953718
      ],
      [
        "one",
        -11.258470019597853
      ],
      [
        "Î±",
        -11.258855211568621
      ],
      [
        "LocallyFinite",
        -11.25928077539341
      ],
      [
        "Presheaf",
        -11.261220296343886
      ],
      [
        "Compl",
        -11.26326031011344
      ],
      [
        "Max",
        -11.265779007748984
      ],
      [
        "toModuleCat",
        -11.266282187335515
      ],
      [
        "uasispectrum",
        -11.268859630167658
      ],
      [
        "Quaternion",
        -11.27130221147308
      ],
      [
        "ĠCircle",
        -11.273499512988058
      ],
      [
        "OpenP",
        -11.273792729650408
      ],
      [
        "Lean",
        -11.275762504878426
      ],
      [
        "OrderTop",
        -11.27624986286673
      ],
      [
        "alRightAction",
        -11.279309197424958
      ],
      [
        "oreSet",
        -11.289029235419651
      ],
      [
        "preimage",
        -11.289939679294879
      ],
      [
        "Generalized",
        -11.291067845868177
      ],
      [
        "PreOneHypercover",
        -11.301738362354563
      ],
      [
        "Walk",
        -11.3018579002394
      ],
      [
        "izeOf",
        -11.304122018442648
      ],
      [
        "DirectSum",
        -11.306055855164296
      ],
      [
        "Î¹",
        -11.306662071757769
      ],
      [
        "AlternatingMap",
        -11.30753511303067
      ],
      [
        "Iic",
        -11.30875799042972
      ],
      [
        "sTopologicalRing",
        -11.309920954604213
      ],
      [
        "Dist",
        -11.31009569521234
      ],
      [
        "Model",
        -11.318937756955451
      ],
      [
        "Dvd",
        -11.323787378371124
      ],
      [
        "NormedAddComm",
        -11.325284417521576
      ],
      [
        "TangentSpace",
        -11.33060807545067
      ],
      [
        "LieSubalgebra",
        -11.333432011995079
      ],
      [
        "oCompleteLattice",
        -11.334300656729857
      ],
      [
        "inverse",
        -11.334450380145807
      ],
      [
        "Groupoid",
        -11.334462563640002
      ],
      [
        "MulAut",
        -11.335565687174922
      ],
      [
        "Empty",
        -11.335954335103972
      ],
      [
        "oMax",
        -11.340762867457514
      ],
      [
        "last",
        -11.345883562940223
      ],
      [
        "linearOrder",
        -11.346862592623308
      ],
      [
        "idePullbackShape",
        -11.346882775341387
      ],
      [
        "inOrd",
        -11.347068874404199
      ],
      [
        "ommGroupWithZero",
        -11.348814801758339
      ],
      [
        "nitInterval",
        -11.348863319612168
      ],
      [
        "alLeftAction",
        -11.349995947575863
      ],
      [
        "cons",
        -11.350075306846293
      ],
      [
        "ostructuredArrow",
        -11.357599920568983
      ],
      [
        "SupSet",
        -11.35870972669228
      ],
      [
        "HomClass",
        -11.360398570655079
      ],
      [
        "RingCon",
        -11.360664326151639
      ],
      [
        "pullback",
        -11.361962753969637
      ],
      [
        "ModelWithCorners",
        -11.362086187050181
      ],
      [
        "Pseudofunctor",
        -11.362278348704356
      ],
      [
        "PairHom",
        -11.365193945120776
      ],
      [
        "EMetricSpace",
        -11.371712755125278
      ],
      [
        "instNormed",
        -11.375161970109604
      ],
      [
        "Sym",
        -11.375552953600607
      ],
      [
        "walkingParallel",
        -11.37736210485259
      ],
      [
        ")))))]",
        -11.37855867139604
      ],
      [
        "StarSubalgebra",
        -11.38206517462187
      ],
      [
        "auto",
        -11.389587253639062
      ],
      [
        "WithL",
        -11.39512729855167
      ],
      [
        "easurableSpace",
        -11.395764967189454
      ],
      [
        "CommCStarAlgebra",
        -11.39740885370026
      ],
      [
        "toBoundedOrder",
        -11.397761440967255
      ],
      [
        "SizeOf",
        -11.399783837969716
      ],
      [
        "Icc",
        -11.401491628831954
      ],
      [
        "SemiNormed",
        -11.404896997021782
      ],
      [
        "Linear",
        -11.405687115158818
      ],
      [
        "bot",
        -11.410767778235904
      ],
      [
        "ker",
        -11.415019047157106
      ],
      [
        "Ġ_)",
        -11.418043825076607
      ],
      [
        "Augmented",
        -11.418777836682908
      ],
      [
        "Has",
        -11.426018528303358
      ],
      [
        "Eventually",
        -11.42740906812818
      ],
      [
        "ProfiniteGrp",
        -11.42769831545563
      ],
      [
        "toFunctor",
        -11.427749479064298
      ],
      [
        "ractionalIdeal",
        -11.428618226223193
      ],
      [
        "Square",
        -11.43088198219291
      ],
      [
        "ChartedSpace",
        -11.433916122715221
      ],
      [
        "lift",
        -11.439187733515118
      ],
      [
        "setOf",
        -11.442107745018795
      ],
      [
        "Ext",
        -11.442455796159678
      ],
      [
        "Vector",
        -11.446131498382552
      ],
      [
        "Tendsto",
        -11.446957039009858
      ],
      [
        "IsOrdered",
        -11.453297844527924
      ],
      [
        "AdjoinRoot",
        -11.459091735427448
      ],
      [
        "categoryOf",
        -11.466044952853753
      ],
      [
        "down",
        -11.469142884017927
      ],
      [
        "Min",
        -11.471287046449934
      ],
      [
        "length",
        -11.472498630343212
      ],
      [
        "TotalSpace",
        -11.474155467666682
      ],
      [
        "Tensor",
        -11.48173231049762
      ],
      [
        "ULift",
        -11.48694111604191
      ],
      [
        "On",
        -11.489876523488133
      ],
      [
        "instHasExplicit",
        -11.492195673641156
      ],
      [
        "alkingCospan",
        -11.49370101852113
      ],
      [
        "Part",
        -11.496151511661006
      ],
      [
        "algebraMap",
        -11.502529119059629
      ],
      [
        "Path",
        -11.50655010470295
      ],
      [
        "SMulCommClass",
        -11.511265298189675
      ],
      [
        "FreeGroup",
        -11.514341126457262
      ],
      [
        "Substructure",
        -11.517144727657824
      ],
      [
        "instNeg",
        -11.51735759655385
      ],
      [
        "Hyper",
        -11.518802689003877
      ],
      [
        "center",
        -11.519595139286823
      ],
      [
        "Projective",
        -11.519611544477778
      ],
      [
        "comap",
        -11.523281312484446
      ],
      [
        "ommBialgCat",
        -11.523600171620508
      ],
      [
        "instMulOneClass",
        -11.52465514826955
      ],
      [
        "in",
        -11.52669479682573
      ],
      [
        "Endofunctor",
        -11.52744166113556
      ],
      [
        "instDivInvMonoid",
        -11.528506164633116
      ],
      [
        "tion",
        -11.530577955680542
      ],
      [
        "of",
        -11.53274748735197
      ],
      [
        "Lo",
        -11.533596764808108
      ],
      [
        "ÏĢ",
        -11.540831826106828
      ],
      [
        "onditional",
        -11.54179029783948
      ],
      [
        "instAddCancel",
        -11.558074286342821
      ],
      [
        "semigroup",
        -11.559118312860358
      ],
      [
        "toContinuous",
        -11.559696492210058
      ],
      [
        "ecialLinearGroup",
        -11.561169950037396
      ],
      [
        "pair",
        -11.564568703934551
      ],
      [
        "Family",
        -11.574830661243201
      ],
      [
        "toComm",
        -11.577701879533796
      ],
      [
        "AddUnits",
        -11.579949664522443
      ],
      [
        "Of",
        -11.581862935439757
      ],
      [
        "Adjunction",
        -11.583738810661055
      ],
      [
        "Ġâ¦ĥ_",
        -11.584815810046859
      ],
      [
        "ĠUnit",
        -11.587504683876263
      ],
      [
        "callyFiniteOrder",
        -11.588448375213426
      ],
      [
        "Îĵ",
        -11.588465535325897
      ],
      [
        "Lie",
        -11.595353791375883
      ],
      [
        "Rep",
        -11.60142962142707
      ],
      [
        "comma",
        -11.603513270023244
      ],
      [
        "HomotopyCategory",
        -11.604337788640931
      ],
      [
        "instNo",
        -11.605046996809127
      ],
      [
        "bicategor",
        -11.605599583998085
      ],
      [
        "Biheyting",
        -11.607383715183218
      ],
      [
        "NonUnitalSubring",
        -11.607699926330923
      ],
      [
        "Inter",
        -11.60830410926725
      ],
      [
        ")))))))))))",
        -11.618920300955626
      ],
      [
        "instOrderBot",
        -11.619708273361777
      ],
      [
        "instAddZeroClass",
        -11.622804420294397
      ],
      [
        "closure",
        -11.622916492919126
      ],
      [
        "Precoverage",
        -11.62518912790269
      ],
      [
        "CommMon",
        -11.626453976109243
      ],
      [
        "Positive",
        -11.62830525765016
      ],
      [
        "ToT",
        -11.630177096577254
      ],
      [
        "Seq",
        -11.630822720062762
      ],
      [
        "Ġâĭ¯}",
        -11.633331326395933
      ],
      [
        "InfSet",
        -11.636292018085538
      ],
      [
        "ĠTuring",
        -11.636676722692247
      ],
      [
        "Mv",
        -11.637296487660286
      ],
      [
        "star",
        -11.637386625531672
      ],
      [
        "IsReal",
        -11.638563498194618
      ],
      [
        "Completion",
        -11.638799583539631
      ],
      [
        "econdCountable",
        -11.64019778970131
      ],
      [
        "ReflexivePair",
        -11.641140476868031
      ],
      [
        "inter",
        -11.642021314108836
      ],
      [
        "CarrierCarrier",
        -11.647648400702831
      ],
      [
        "iUnion",
        -11.653203836494816
      ],
      [
        "LinearOrdered",
        -11.656244506061146
      ],
      [
        "Structure",
        -11.657599020589087
      ],
      [
        "inr",
        -11.660480620128903
      ],
      [
        "support",
        -11.661431191647893
      ],
      [
        "Unitization",
        -11.66293449593584
      ],
      [
        "Formal",
        -11.664754408089689
      ],
      [
        "UpperHalfPlane",
        -11.66503024589605
      ],
      [
        "instAddComm",
        -11.676598351879479
      ],
      [
        "Closed",
        -11.681943520773702
      ],
      [
        "Surjective",
        -11.692701050995087
      ],
      [
        "dist",
        -11.695320457920731
      ],
      [
        "lyRingedSpace",
        -11.696982264826701
      ],
      [
        "toBot",
        -11.697479187662404
      ],
      [
        "ctionObj",
        -11.704257385207548
      ],
      [
        "LightProfinite",
        -11.705903733969922
      ],
      [
        "instInter",
        -11.706784787519826
      ],
      [
        "alkingSpan",
        -11.706928633723383
      ],
      [
        "Presieve",
        -11.71610456418427
      ],
      [
        "V",
        -11.71614760507042
      ],
      [
        "ddDist",
        -11.717064937440092
      ],
      [
        "algebraOf",
        -11.717936872125778
      ],
      [
        "Relations",
        -11.719728545526094
      ],
      [
        "succAbove",
        -11.723501893998721
      ],
      [
        "PNat",
        -11.72584041280929
      ],
      [
        "Setoid",
        -11.727922954936885
      ],
      [
        "Sublattice",
        -11.729436686503345
      ],
      [
        "Fun",
        -11.730257607787136
      ],
      [
        "Unique",
        -11.731744600018626
      ],
      [
        "instSMul",
        -11.731865577464466
      ],
      [
        "Pointed",
        -11.736573899606553
      ],
      [
        "biproduct",
        -11.741433201842332
      ],
      [
        "Product",
        -11.744064676862877
      ],
      [
        "restrict",
        -11.74510967426242
      ],
      [
        "OrderIso",
        -11.746367035256565
      ],
      [
        "toProfinite",
        -11.748745660497775
      ],
      [
        "CommGrp",
        -11.75016931352254
      ],
      [
        "Skew",
        -11.751487974919211
      ],
      [
        "Sign",
        -11.751924022488408
      ],
      [
        "toInv",
        -11.757130136318956
      ],
      [
        "FiniteCoproducts",
        -11.762277188100956
      ],
      [
        "mul",
        -11.762468821748032
      ],
      [
        "triangle",
        -11.766224993430544
      ],
      [
        "base",
        -11.766418310185236
      ],
      [
        "Prime",
        -11.774198339797126
      ],
      [
        "toCategory",
        -11.776446356617255
      ],
      [
        "toGeneralized",
        -11.779281971948993
      ],
      [
        "AddS",
        -11.78170850181444
      ],
      [
        "PreG",
        -11.786808767377524
      ],
      [
        "iSup",
        -11.787249345243348
      ],
      [
        "ultispanShape",
        -11.790954308492031
      ],
      [
        "instBot",
        -11.791326335517615
      ],
      [
        "Mono",
        -11.792456299660229
      ],
      [
        "SingleObj",
        -11.793135182811687
      ],
      [
        "Coproduct",
        -11.795068997252084
      ],
      [
        "mptyCollection",
        -11.795520988653196
      ],
      [
        "Normal",
        -11.799300635648299
      ],
      [
        "Within",
        -11.803488352174071
      ],
      [
        "LinearIsometry",
        -11.80371108830126
      ],
      [
        "Union",
        -11.804375361462377
      ],
      [
        "Summa",
        -11.80475893919217
      ],
      [
        "UniformCon",
        -11.805114882334152
      ],
      [
        "toCoalgebra",
        -11.814907315772642
      ],
      [
        "AddHom",
        -11.816743570217179
      ],
      [
        "Ord",
        -11.818671538366562
      ],
      [
        "Tru",
        -11.820038638955578
      ],
      [
        "colimit",
        -11.821412602067896
      ],
      [
        "Frame",
        -11.822586669757035
      ],
      [
        "StructuredArrow",
        -11.823184539868915
      ],
      [
        "li",
        -11.82483294886078
      ],
      [
        "Homeomorph",
        -11.825529514584455
      ],
      [
        "idePushoutShape",
        -11.83123061275261
      ],
      [
        "rallelPair",
        -11.831830785950663
      ],
      [
        "single",
        -11.832700425524038
      ],
      [
        "Cotangent",
        -11.832823758110905
      ],
      [
        "IsDomain",
        -11.833201736991441
      ],
      [
        "MvP",
        -11.834733848211343
      ],
      [
        "FintypeCat",
        -11.838800943846278
      ],
      [
        "w",
        -11.84066059507489
      ],
      [
        "Compacts",
        -11.840854309905959
      ],
      [
        "instPow",
        -11.842631114356243
      ],
      [
        "locallyDiscrete",
        -11.843402944293691
      ],
      [
        "toDist",
        -11.84347069013545
      ],
      [
        "Fact",
        -11.845107104197766
      ],
      [
        "Aux",
        -11.846421984887975
      ],
      [
        "U",
        -11.849007662386068
      ],
      [
        "Spectrum",
        -11.8530981176816
      ],
      [
        "PiLp",
        -11.855146877310489
      ],
      [
        "noidalCategoryOp",
        -11.85575302696548
      ],
      [
        "simplicialObject",
        -11.856012281541414
      ],
      [
        "monoidalOpposite",
        -11.857070405368358
      ],
      [
        "HopfAlgebra",
        -11.85953199364106
      ],
      [
        "UpperSet",
        -11.864310967205169
      ],
      [
        "ndrec",
        -11.865275353168848
      ],
      [
        "Valuative",
        -11.8660863602999
      ],
      [
        "Simplex",
        -11.86911539697569
      ],
      [
        "instLattice",
        -11.869126278190663
      ],
      [
        "Obj",
        -11.86987662948108
      ],
      [
        "IsOpen",
        -11.871015787329874
      ],
      [
        "Ab",
        -11.87318386073902
      ],
      [
        "ubgraph",
        -11.875805620683476
      ],
      [
        "compl",
        -11.881582751770344
      ],
      [
        "Inhabited",
        -11.881834683238669
      ],
      [
        "))))))]",
        -11.882461931677565
      ],
      [
        "parallelPair",
        -11.883788886757262
      ],
      [
        "IsComple",
        -11.888040005575245
      ],
      [
        "Index",
        -11.888173442602499
      ],
      [
        "presheaf",
        -11.888188338504273
      ],
      [
        "Triple",
        -11.88885287028525
      ],
      [
        "chwartz",
        -11.891299852371485
      ],
      [
        "rmedDivisionRing",
        -11.893776812113153
      ],
      [
        "BoolAlg",
        -11.89737822661127
      ],
      [
        "Lift",
        -11.897898430104561
      ],
      [
        "LocallyConstant",
        -11.898392799933905
      ],
      [
        "eudoEMetricSpace",
        -11.900021525585244
      ],
      [
        "ToType",
        -11.900033230147404
      ],
      [
        "lieRing",
        -11.901769180857242
      ],
      [
        "Uniform",
        -11.903586789789749
      ],
      [
        "min",
        -11.903803324621933
      ],
      [
        "trans",
        -11.908246983040637
      ],
      [
        "instHas",
        -11.909828863598499
      ],
      [
        "Disjoint",
        -11.91112678574639
      ],
      [
        "Str",
        -11.913082545143888
      ],
      [
        "LieModule",
        -11.91720858779507
      ],
      [
        "toVAdd",
        -11.917233626748931
      ],
      [
        "Morphism",
        -11.91924271701737
      ],
      [
        "allyRingedSpace",
        -11.920283141431595
      ],
      [
        "at",
        -11.921077906617073
      ],
      [
        "Derivation",
        -11.92444643845355
      ],
      [
        "Dia",
        -11.925422048404874
      ],
      [
        "Vec",
        -11.931806013276233
      ],
      [
        "con",
        -11.936743189065169
      ],
      [
        "aryPreExtensive",
        -11.936963454570279
      ],
      [
        "IsDedekindDomain",
        -11.937422329669943
      ],
      [
        "Closure",
        -11.942470341204348
      ],
      [
        "SheafOf",
        -11.943650479805381
      ],
      [
        "toSeminormedComm",
        -11.945934688767643
      ],
      [
        "SDiff",
        -11.949349094725058
      ],
      [
        "FreeMonoidal",
        -11.952339470350148
      ],
      [
        "insert",
        -11.953206825595602
      ],
      [
        "WithinAt",
        -11.956789060137318
      ],
      [
        "instLo",
        -11.957380692024696
      ],
      [
        "toStarRing",
        -11.958102188238016
      ],
      [
        "Colimits",
        -11.960641237016148
      ],
      [
        "oMin",
        -11.962515152100199
      ],
      [
        "Monomial",
        -11.964059090015471
      ],
      [
        "instNorm",
        -11.96587835483443
      ],
      [
        "Co",
        -11.966145237019795
      ],
      [
        "ContMDiffMap",
        -11.967687896169329
      ],
      [
        "ZeroHypercover",
        -11.967862567210666
      ],
      [
        "Func",
        -11.971120363561509
      ],
      [
        "prime",
        -11.975719378438853
      ],
      [
        "nUnitalNonAssoc",
        -11.981186111939396
      ],
      [
        "measureSpace",
        -11.98658806098998
      ],
      [
        "match",
        -11.98734482764052
      ],
      [
        "MulHom",
        -11.9900237560664
      ],
      [
        "union",
        -11.99559278965805
      ],
      [
        "adjoin",
        -11.996043351287753
      ],
      [
        "Cochain",
        -11.996863315712572
      ],
      [
        "LowerSe",
        -11.99719868232726
      ],
      [
        "biprod",
        -11.998570615586543
      ],
      [
        "SqZero",
        -12.000304282877444
      ],
      [
        "abs",
        -12.00470219388513
      ],
      [
        "Mod",
        -12.005962286342852
      ],
      [
        "Triv",
        -12.00737841859759
      ],
      [
        "eftHomologyData",
        -12.007913668985582
      ],
      [
        "mber",
        -12.012742455385588
      ],
      [
        "Integrable",
        -12.015070053028644
      ],
      [
        "ĠList",
        -12.016375919436884
      ],
      [
        "toLocal",
        -12.017020117577847
      ],
      [
        "toOrderTop",
        -12.017741770518409
      ],
      [
        "ZFSet",
        -12.019183630735457
      ],
      [
        "atTop",
        -12.020133618761868
      ],
      [
        "iInf",
        -12.020727175683303
      ],
      [
        "Wor",
        -12.022496326303393
      ],
      [
        "HasZeroObject",
        -12.023415947855819
      ],
      [
        "len",
        -12.025542452412001
      ],
      [
        "Products",
        -12.025693344170943
      ],
      [
        "In",
        -12.028564852922578
      ],
      [
        "instAddN",
        -12.029079509462743
      ],
      [
        "neralLinearGroup",
        -12.031710317605256
      ],
      [
        "Insert",
        -12.032339068414943
      ],
      [
        "Q",
        -12.035664836474249
      ],
      [
        "ofReal",
        -12.036592040938189
      ],
      [
        "instUnion",
        -12.037812623654615
      ],
      [
        "instInv",
        -12.04065840678561
      ],
      [
        "Ġ_]",
        -12.04106317506529
      ],
      [
        "mixed",
        -12.043542078337957
      ],
      [
        "initaryExtensive",
        -12.048195225012535
      ],
      [
        "instInsert",
        -12.05240708491375
      ],
      [
        "limit",
        -12.052703450051006
      ],
      [
        "Colex",
        -12.052733165247172
      ],
      [
        "eval",
        -12.054587408576552
      ],
      [
        "Ġ_â¦Ħ",
        -12.058176230274848
      ],
      [
        "Associate",
        -12.061005548365937
      ],
      [
        "Ġ(",
        -12.063313735012311
      ],
      [
        "asIdeal",
        -12.063560493939733
      ],
      [
        "ColimitsOfShape",
        -12.065046672028028
      ],
      [
        "pposite",
        -12.06711686591028
      ],
      [
        "instCompl",
        -12.069944134225542
      ],
      [
        "ContinuousLinear",
        -12.070581685001002
      ],
      [
        "ĠAddCommMonoid",
        -12.07459687244939
      ],
      [
        "sqrt",
        -12.077317577980171
      ],
      [
        "chartedSpace",
        -12.078288484432067
      ],
      [
        "UnitAdd",
        -12.079439996661101
      ],
      [
        "Induced",
        -12.080277661686015
      ],
      [
        "commGroup",
        -12.086186371309754
      ],
      [
        "StrictMono",
        -12.091864896150337
      ],
      [
        "sOfInclusions",
        -12.093269139369509
      ],
      [
        "Comp",
        -12.094412726739094
      ],
      [
        "Simple",
        -12.09484240312048
      ],
      [
        "AlgebraicClosure",
        -12.097076324662162
      ],
      [
        "is",
        -12.10014927245459
      ],
      [
        "BraidedCategory",
        -12.103380151836282
      ],
      [
        "Î",
        -12.104363386524007
      ],
      [
        "op",
        -12.107144207892524
      ],
      [
        "Oplax",
        -12.107320945489182
      ],
      [
        "ToReal",
        -12.108501961972149
      ],
      [
        "monoidalCategory",
        -12.113549110058077
      ],
      [
        "addGroupIs",
        -12.116763056510656
      ],
      [
        "ightHomologyData",
        -12.116939319198128
      ],
      [
        "Snake",
        -12.119368050014346
      ],
      [
        "Emb",
        -12.12295292481594
      ],
      [
        "IsOpenImmersion",
        -12.123732508892813
      ],
      [
        "HasShift",
        -12.12560426794366
      ],
      [
        "Degree",
        -12.128972195208636
      ],
      [
        "LaxFunctor",
        -12.130021417211111
      ],
      [
        "SemiRingCat",
        -12.136394099841713
      ],
      [
        "toENorm",
        -12.138294331571135
      ],
      [
        "toLoc",
        -12.138880117593388
      ],
      [
        "Z",
        -12.139614241049381
      ],
      [
        "IsClosed",
        -12.142759744134102
      ],
      [
        "Point",
        -12.14303105202919
      ],
      [
        "Torus",
        -12.144624292542261
      ],
      [
        "diff",
        -12.144884309938973
      ],
      [
        "OfHasExplicit",
        -12.146492860499283
      ],
      [
        "tCospanTransform",
        -12.146579623957468
      ],
      [
        "Homogeneous",
        -12.147431380722386
      ],
      [
        "SmallObject",
        -12.14981965200506
      ],
      [
        "smul",
        -12.150575202806856
      ],
      [
        "Decidable",
        -12.154254451796582
      ],
      [
        "inl",
        -12.157280190208635
      ],
      [
        "J",
        -12.158183949484926
      ],
      [
        "integral",
        -12.158663764655508
      ],
      [
        "group",
        -12.158923973727354
      ],
      [
        "Profinite",
        -12.162148440120822
      ],
      [
        "Pairwise",
        -12.162621063549771
      ],
      [
        ")]",
        -12.162715593401614
      ],
      [
        "ContDiff",
        -12.162980383078839
      ],
      [
        "Ġâ",
        -12.163745476671378
      ],
      [
        "ĠNonempty",
        -12.166187780594964
      ],
      [
        "volume",
        -12.171576915752121
      ],
      [
        "etRel",
        -12.174613003156132
      ],
      [
        "Term",
        -12.176267498055942
      ],
      [
        "EnrichedCategory",
        -12.176488621360104
      ],
      [
        "instSingleton",
        -12.178582741838264
      ],
      [
        "coprod",
        -12.188442313876081
      ],
      [
        "IsLocalization",
        -12.190259714757811
      ],
      [
        "nput",
        -12.192165315401924
      ],
      [
        "toAddSubmonoid",
        -12.1938483708017
      ],
      [
        "modelWithCorners",
        -12.196288741855176
      ],
      [
        "instNonUnital",
        -12.196338475344863
      ],
      [
        "Interval",
        -12.198031418124748
      ],
      [
        "unc",
        -12.198744766909362
      ],
      [
        "IdemSemiring",
        -12.199646807402054
      ],
      [
        "toNat",
        -12.200642878054662
      ],
      [
        "MonoidHomCarrier",
        -12.204872525334661
      ],
      [
        "Character",
        -12.211835577859294
      ],
      [
        "functorCategory",
        -12.212903431546664
      ],
      [
        "Multicospan",
        -12.213133581901104
      ],
      [
        "ing",
        -12.214981574147835
      ],
      [
        "Small",
        -12.217204268869184
      ],
      [
        "Shrink",
        -12.21754484610245
      ],
      [
        "EDist",
        -12.218138368729983
      ],
      [
        "ocalizerMorphism",
        -12.21896986377223
      ],
      [
        "ulticospanIndex",
        -12.225058088017594
      ],
      [
        "ulOneClass",
        -12.22514166421041
      ],
      [
        "Univ",
        -12.225511617178931
      ],
      [
        "ContinuousAffine",
        -12.228279081215277
      ],
      [
        "toUniformCon",
        -12.231999356635672
      ],
      [
        "ofAssociative",
        -12.240512724839398
      ],
      [
        "CoprodI",
        -12.241142680437239
      ],
      [
        "AddSub",
        -12.242840676957172
      ],
      [
        "MonObj",
        -12.242869495365046
      ],
      [
        "toC",
        -12.244545441917912
      ],
      [
        "proj",
        -12.246385345051547
      ],
      [
        "LaxMonoidal",
        -12.252812472811094
      ],
      [
        "toContinuousMul",
        -12.252853304284123
      ],
      [
        "CommSemiRingCat",
        -12.253030512269934
      ],
      [
        "OrderEmbedding",
        -12.255594325423056
      ],
      [
        "recoverage",
        -12.257755203656453
      ],
      [
        "CancelMonoid",
        -12.260830963189274
      ],
      [
        "ChainComplex",
        -12.266898871255922
      ],
      [
        "toTopCat",
        -12.267117005978013
      ],
      [
        "instStarRing",
        -12.26744702895919
      ],
      [
        "RingedSpace",
        -12.268112081976467
      ],
      [
        "completeLattice",
        -12.271936715919981
      ],
      [
        "DayConvolution",
        -12.274130764475853
      ],
      [
        "Bicone",
        -12.27577401328396
      ],
      [
        "pointwise",
        -12.277248083276575
      ],
      [
        "toLinearMap",
        -12.277547697860953
      ],
      [
        "omposableArrows",
        -12.278230450772348
      ],
      [
        "DerivedCategory",
        -12.280212016882645
      ],
      [
        "SubtypeMem",
        -12.281229371425074
      ],
      [
        "Bool",
        -12.284607855853292
      ],
      [
        "IsColimit",
        -12.284779715664735
      ],
      [
        "tensor",
        -12.285161671924271
      ],
      [
        "flip",
        -12.286049959007869
      ],
      [
        "Strong",
        -12.287380583415555
      ],
      [
        "EuclideanSpace",
        -12.287457176953357
      ],
      [
        "instP",
        -12.287968002081534
      ],
      [
        "coeff",
        -12.288119967462478
      ],
      [
        "PresheafOf",
        -12.293476180871686
      ],
      [
        "TwoSided",
        -12.296837007270158
      ],
      [
        "LieRingModule",
        -12.297777461549622
      ],
      [
        "StarMul",
        -12.2999716730741
      ],
      [
        "pushout",
        -12.3004142990208
      ],
      [
        "Pi",
        -12.30204328627228
      ],
      [
        "sOfShape",
        -12.302646204989635
      ],
      [
        "Preserves",
        -12.302671027924012
      ],
      [
        "oherentTopology",
        -12.302766029865863
      ],
      [
        "symptotic",
        -12.303103283417489
      ],
      [
        "sub",
        -12.305594640571352
      ],
      [
        "IdealSheaf",
        -12.306912228846796
      ],
      [
        "onjAct",
        -12.308014302586225
      ],
      [
        "ultispanIndex",
        -12.308294496556591
      ],
      [
        "ddZeroClass",
        -12.309332009304057
      ],
      [
        "NonUnitalSemi",
        -12.311265249225809
      ],
      [
        "ode",
        -12.31174966771383
      ],
      [
        "partition",
        -12.312713781024396
      ],
      [
        "WalkingMulti",
        -12.313068429562314
      ],
      [
        "fNat",
        -12.316190188878576
      ],
      [
        "cospan",
        -12.319384714058057
      ],
      [
        "dirichlet",
        -12.31959849112771
      ],
      [
        "Differentiable",
        -12.323266761259475
      ],
      [
        "Monotone",
        -12.325123879248718
      ],
      [
        "Completely",
        -12.326759858728593
      ],
      [
        "yCompleteLattice",
        -12.327223759467675
      ],
      [
        "Bimo",
        -12.328343289908386
      ],
      [
        "ĠinstI",
        -12.328934781702959
      ],
      [
        "Ġ_)))))))",
        -12.330898883593168
      ],
      [
        "ContinuousAdd",
        -12.331025435621267
      ],
      [
        "Code",
        -12.331613341797809
      ],
      [
        "Semigrp",
        -12.331965014289676
      ],
      [
        "yoneda",
        -12.33242346582534
      ],
      [
        "exp",
        -12.334032456224298
      ],
      [
        "kernel",
        -12.334809479820404
      ],
      [
        "toNormedAdd",
        -12.335520901357533
      ],
      [
        "auSeq",
        -12.338204392879412
      ],
      [
        "Ľ",
        -12.339509785633558
      ],
      [
        "ParallelPairHom",
        -12.340780132831075
      ],
      [
        "irectLimit",
        -12.342435084162531
      ],
      [
        "Homotopy",
        -12.344025048176515
      ],
      [
        "IsLimit",
        -12.345079334087158
      ],
      [
        "refl",
        -12.34595616634353
      ],
      [
        "UniformOnFun",
        -12.348019177047338
      ],
      [
        "Mat",
        -12.353991895233364
      ],
      [
        "Stmt",
        -12.355083608721127
      ],
      [
        "low",
        -12.35612453910446
      ],
      [
        "Applicative",
        -12.358366478244086
      ],
      [
        "isTopological",
        -12.360521331212055
      ],
      [
        "IsUnit",
        -12.363107990798607
      ],
      [
        "RingHomComp",
        -12.363554117235946
      ],
      [
        "hape",
        -12.36390957881173
      ],
      [
        "ĠinstTop",
        -12.376523760002193
      ],
      [
        "Proj",
        -12.378663310023056
      ],
      [
        "extend",
        -12.379893938624821
      ],
      [
        "instIsOrdered",
        -12.380707592996036
      ],
      [
        "GradedMonoid",
        -12.38128328923364
      ],
      [
        "IsIso",
        -12.382756131957096
      ],
      [
        "walking",
        -12.384120049685336
      ],
      [
        "Dense",
        -12.386574758419549
      ],
      [
        "Trivialization",
        -12.38745066828234
      ],
      [
        "demSemiring",
        -12.388084495217226
      ],
      [
        "Composition",
        -12.389643883831072
      ],
      [
        "HasLimitsOfShape",
        -12.390091287423475
      ],
      [
        "log",
        -12.39209290911909
      ],
      [
        "toLocally",
        -12.39996691587967
      ],
      [
        "initeDimensional",
        -12.401342686071278
      ],
      [
        "mersi",
        -12.402039658532896
      ],
      [
        "instSProd",
        -12.402830211720815
      ],
      [
        "AddSemigrp",
        -12.404311032939539
      ],
      [
        "ack",
        -12.406293491458868
      ],
      [
        "comm",
        -12.406607806757371
      ],
      [
        "Ioc",
        -12.408014417196696
      ],
      [
        "zmultiples",
        -12.408801481966032
      ],
      [
        "finrank",
        -12.409455695551648
      ],
      [
        "ePresentation",
        -12.415289489294423
      ],
      [
        "addGroup",
        -12.416037393035133
      ],
      [
        "spectrum",
        -12.420654570846672
      ],
      [
        "Bornology",
        -12.423181438641471
      ],
      [
        "hasZeroMorphisms",
        -12.423729842296893
      ],
      [
        "otangentSpace",
        -12.424449486822532
      ],
      [
        "K",
        -12.428791411518404
      ],
      [
        "Fiber",
        -12.42889543894577
      ],
      [
        "odelCategory",
        -12.429321277924704
      ],
      [
        "rsive",
        -12.430916527064614
      ],
      [
        "instCommMonoid",
        -12.432113177191347
      ],
      [
        "eightOneSpectrum",
        -12.432743747975362
      ],
      [
        "onAssocSemiring",
        -12.435329093018051
      ],
      [
        "toNonUnitalSemi",
        -12.436922694048665
      ],
      [
        "Bdd",
        -12.437496667100682
      ],
      [
        "reeAddMonoid",
        -12.438792426856779
      ],
      [
        "maximal",
        -12.440463932573904
      ],
      [
        "Summable",
        -12.44050242632812
      ],
      [
        "Alg",
        -12.440506479334308
      ],
      [
        "RelC",
        -12.442737289791548
      ],
      [
        "toRat",
        -12.443645287209463
      ],
      [
        "associator",
        -12.444026327688402
      ],
      [
        "ulticospanShape",
        -12.44585864310066
      ],
      [
        "â¦Ħ",
        -12.44753675850789
      ],
      [
        "Theorem",
        -12.447852481726828
      ],
      [
        "Left",
        -12.448267157858979
      ],
      [
        "unit",
        -12.448931980185279
      ],
      [
        "vecCo",
        -12.451737836833054
      ],
      [
        "Center",
        -12.452058717107885
      ],
      [
        "uniform",
        -12.454393576529725
      ],
      [
        "equiv",
        -12.454643442980714
      ],
      [
        "cokernel",
        -12.45474315876219
      ],
      [
        "Borel",
        -12.454812263838175
      ],
      [
        "Splitting",
        -12.455427129072515
      ],
      [
        "reSub",
        -12.455866243160642
      ],
      [
        "preorder",
        -12.457559909569923
      ],
      [
        "edCommRing",
        -12.459698416359988
      ],
      [
        "instL",
        -12.460151497598773
      ],
      [
        "Diagram",
        -12.460266651715898
      ],
      [
        "NNRat",
        -12.46068504708036
      ],
      [
        "ord",
        -12.46187372960574
      ],
      [
        "instSDiff",
        -12.462612484084516
      ],
      [
        "ntFract",
        -12.462897640730207
      ],
      [
        "noConfusion",
        -12.463305420579278
      ],
      [
        "instDistrib",
        -12.463873997108653
      ],
      [
        "Right",
        -12.466641198367428
      ],
      [
        "Meta",
        -12.469712034035847
      ],
      [
        "Boolean",
        -12.471633528502098
      ],
      [
        "Se",
        -12.479378445457865
      ],
      [
        "Arithmetic",
        -12.480179552471862
      ],
      [
        "mClass",
        -12.480905177397997
      ],
      [
        "Resolution",
        -12.48179693182237
      ],
      [
        "asQuotient",
        -12.485301628354936
      ],
      [
        "Â",
        -12.485832643401334
      ],
      [
        "Subsingleton",
        -12.487590224226011
      ],
      [
        "Trans",
        -12.48867535427209
      ],
      [
        "MonoidHomClass",
        -12.492298723977736
      ],
      [
        "iInter",
        -12.49242396923814
      ],
      [
        "stalk",
        -12.492868416345724
      ],
      [
        "ulSemiringAction",
        -12.495183001158711
      ],
      [
        "zariski",
        -12.496049011200899
      ],
      [
        "EquivClass",
        -12.496953627989207
      ],
      [
        "Solution",
        -12.497178117949737
      ],
      [
        "OfIsScalarTower",
        -12.500423737066471
      ],
      [
        "AddCancel",
        -12.500582718996755
      ],
      [
        "ddOrd",
        -12.501029036546477
      ],
      [
        "DecidablePred",
        -12.502882973223471
      ],
      [
        "Countable",
        -12.503080467283258
      ],
      [
        "StandardEtale",
        -12.505096056951377
      ],
      [
        "castSucc",
        -12.505175987577639
      ],
      [
        "FirstO",
        -12.507015335404102
      ],
      [
        "Local",
        -12.507519361914134
      ],
      [
        "Gen",
        -12.50755386853782
      ],
      [
        "Iio",
        -12.512317565255472
      ],
      [
        "instInner",
        -12.513122797506652
      ],
      [
        "BinaryBicone",
        -12.513269013173572
      ],
      [
        "berg",
        -12.51383785786804
      ],
      [
        "instDiv",
        -12.51505262782953
      ],
      [
        "Deg",
        -12.517166684593025
      ],
      [
        "ContMDiff",
        -12.520247484488877
      ],
      [
        "instCommGroup",
        -12.522415565247835
      ],
      [
        "rder",
        -12.525138112444571
      ],
      [
        "Regular",
        -12.525225269754602
      ],
      [
        "ZeroHom",
        -12.525261621128827
      ],
      [
        "NeZero",
        -12.527567595831393
      ],
      [
        "parationQuotient",
        -12.528621433438017
      ],
      [
        "Convex",
        -12.531405802236932
      ],
      [
        "Moore",
        -12.5326571539293
      ],
      [
        "Carrier",
        -12.53422012817256
      ],
      [
        "ontinuousMapZero",
        -12.536397964807813
      ],
      [
        "LatticeHom",
        -12.537385588144879
      ],
      [
        "homology",
        -12.53783466719275
      ],
      [
        "ithVal",
        -12.539735418040753
      ],
      [
        "sUniformAddGroup",
        -12.542117740566582
      ],
      [
        "EnrichedOrdinary",
        -12.54351163827614
      ],
      [
        "instIsDomain",
        -12.546216520588072
      ],
      [
        "ilen",
        -12.547860039903435
      ],
      [
        "CStarModule",
        -12.55136479567494
      ],
      [
        "MonoOver",
        -12.553074510435827
      ],
      [
        "ĠinstTopEN",
        -12.553184802937317
      ],
      [
        "Append",
        -12.553388613244167
      ],
      [
        "monoid",
        -12.555692008304323
      ],
      [
        "ĠinstNatCast",
        -12.557595222414161
      ],
      [
        "lattice",
        -12.557617950392398
      ],
      [
        "VSub",
        -12.558586991418053
      ],
      [
        "instInfSet",
        -12.560208782715655
      ],
      [
        "RelIso",
        -12.56119308930532
      ],
      [
        "sPrime",
        -12.564854384491039
      ],
      [
        "Isometric",
        -12.568285664686226
      ],
      [
        "Power",
        -12.568667454214275
      ],
      [
        "direct",
        -12.572791078910939
      ],
      [
        "Bilin",
        -12.573143356678656
      ],
      [
        "StarAlgHom",
        -12.573890012237431
      ],
      [
        "Pairing",
        -12.577614249892527
      ],
      [
        "nstSmallCategory",
        -12.57875204589524
      ],
      [
        "Biproducts",
        -12.583786640871448
      ],
      [
        "IsTopologicalAdd",
        -12.585645059502937
      ],
      [
        "LeftMoves",
        -12.586367162617702
      ],
      [
        "valuation",
        -12.587121722832254
      ],
      [
        "toFinit",
        -12.59011892353276
      ],
      [
        "ĠNontrivial",
        -12.59304012015463
      ],
      [
        "Ġ_",
        -12.599144611326345
      ],
      [
        "em",
        -12.599728177630695
      ],
      [
        "whiskerRight",
        -12.600172925687943
      ],
      [
        "Valued",
        -12.601260640194951
      ],
      [
        "whiskerLeft",
        -12.602311266513912
      ],
      [
        "ite",
        -12.604553855623745
      ],
      [
        "OrderTopology",
        -12.605166876252767
      ],
      [
        "SProd",
        -12.605412740527068
      ],
      [
        "ParallelPair",
        -12.609398365255
      ],
      [
        "normedSpace",
        -12.609857688239455
      ],
      [
        "MeasurableEquiv",
        -12.610079214513592
      ],
      [
        "fromP",
        -12.611601190688212
      ],
      [
        "IsometryEquiv",
        -12.612955913573463
      ],
      [
        "ContinuousOn",
        -12.619349451097083
      ],
      [
        "Perfection",
        -12.621062022342848
      ],
      [
        "toPartialEquiv",
        -12.621960639641626
      ],
      [
        "Bracket",
        -12.622319489299144
      ],
      [
        "reGaloisCategory",
        -12.62235054484178
      ],
      [
        "swap",
        -12.622643347778686
      ],
      [
        "whiskeringLeft",
        -12.622751087840129
      ],
      [
        "Preord",
        -12.625684343145789
      ],
      [
        "instMeasureSpace",
        -12.626939336344115
      ],
      [
        "Ici",
        -12.629560286624045
      ],
      [
        "FreeMagma",
        -12.629907329020673
      ],
      [
        "small",
        -12.632587509829657
      ],
      [
        "Condensed",
        -12.633636614751078
      ],
      [
        "Types",
        -12.63441114380301
      ],
      [
        "sNum",
        -12.635231445542159
      ],
      [
        "ion",
        -12.638393749668769
      ],
      [
        "DomMulAct",
        -12.64014273847904
      ],
      [
        "Ġ_)))))))))",
        -12.64157549483533
      ],
      [
        "none",
        -12.645690268062502
      ],
      [
        "Archimedean",
        -12.645821924726615
      ],
      [
        "AddRight",
        -12.651200349772491
      ],
      [
        "Ico",
        -12.656038826638886
      ],
      [
        "DiscreteQuotient",
        -12.65648448518017
      ],
      [
        "ContinuousMul",
        -12.657281260175338
      ],
      [
        "toReal",
        -12.658676573072922
      ],
      [
        "Preregular",
        -12.659770509616866
      ],
      [
        "Circle",
        -12.66014248529239
      ],
      [
        "core",
        -12.660450793756679
      ],
      [
        "cycles",
        -12.66113137078905
      ],
      [
        "WithCofibrations",
        -12.661202602090297
      ],
      [
        "IsFiniteMeasure",
        -12.66355279298427
      ],
      [
        "toPseudoE",
        -12.664003791696612
      ],
      [
        "hasFinite",
        -12.66403878538652
      ],
      [
        "hasColimits",
        -12.664763100487066
      ],
      [
        "edFinpartition",
        -12.664864063175386
      ],
      [
        "ProfiniteAddGrp",
        -12.664927322880882
      ],
      [
        "codable",
        -12.667050983124664
      ],
      [
        "powers",
        -12.667083822373382
      ],
      [
        "ical",
        -12.669345824128662
      ],
      [
        "Ġâĭ¯))",
        -12.671187278268196
      ],
      [
        "rank",
        -12.671256177843198
      ],
      [
        "Factorization",
        -12.671915083075746
      ],
      [
        "RightMoves",
        -12.6721658136746
      ],
      [
        "selfAdjoint",
        -12.67254969406753
      ],
      [
        "onUnitalSemiring",
        -12.673802890394644
      ],
      [
        "filter",
        -12.674262814208214
      ],
      [
        "CommShift",
        -12.676140002632003
      ],
      [
        "nstLargeCategory",
        -12.67755507465478
      ],
      [
        "ath",
        -12.678211072758053
      ],
      [
        "IsCompact",
        -12.67912696445962
      ],
      [
        "Forall",
        -12.679194183889923
      ],
      [
        "NormedA",
        -12.680005803764033
      ],
      [
        "ZPow",
        -12.682593073001279
      ],
      [
        "lintegral",
        -12.682726743750191
      ],
      [
        "Pro",
        -12.683496080616568
      ],
      [
        "ball",
        -12.683775073174932
      ],
      [
        "instDivisionRing",
        -12.685077515056438
      ],
      [
        "MulChar",
        -12.687392843468473
      ],
      [
        "ronglyMeasurable",
        -12.691304603071945
      ],
      [
        "stLat",
        -12.692124766533588
      ],
      [
        "PowerBasis",
        -12.692306524191762
      ],
      [
        "LaurentSeries",
        -12.694241762488911
      ],
      [
        "OfFinit",
        -12.696074198916012
      ],
      [
        "PseudoEMetric",
        -12.697691260537916
      ],
      [
        "source",
        -12.700573626079176
      ],
      [
        "ation",
        -12.701154132299314
      ],
      [
        "edAddCommMonoid",
        -12.701400148046812
      ],
      [
        "instStar",
        -12.702801211245198
      ],
      [
        "stDistribLattice",
        -12.704356770097334
      ],
      [
        "Computa",
        -12.705148277729794
      ],
      [
        "Char",
        -12.705720212039521
      ],
      [
        "IsOrderedCancel",
        -12.706465092247747
      ],
      [
        "FiberBundle",
        -12.707433945701947
      ],
      [
        "mpactlySupported",
        -12.707738213463362
      ],
      [
        "SmallCategory",
        -12.708472143048615
      ],
      [
        "instCategoryC",
        -12.709533286454135
      ],
      [
        "RingQuot",
        -12.710524216397168
      ],
      [
        "orgetEnrichment",
        -12.711264006544784
      ],
      [
        "OneHypercover",
        -12.712110717043348
      ],
      [
        "instPrecoherent",
        -12.712518337346411
      ],
      [
        "toNN",
        -12.71631431630853
      ],
      [
        "allyCompleteL",
        -12.716371576592017
      ],
      [
        "Coxeter",
        -12.717211035382487
      ],
      [
        "MeasurableS",
        -12.71760309246463
      ],
      [
        "toHopfAlgebra",
        -12.718354270071394
      ],
      [
        "unitary",
        -12.718700672929632
      ],
      [
        "direction",
        -12.721933329805317
      ],
      [
        "IntCast",
        -12.724027160811623
      ],
      [
        "CentroidHom",
        -12.726200966280537
      ],
      [
        "degree",
        -12.727860032999544
      ],
      [
        "rea",
        -12.727947627709762
      ],
      [
        "HasBinary",
        -12.728105980413678
      ],
      [
        "Jacobian",
        -12.730090443388525
      ],
      [
        "Based",
        -12.732384531766495
      ],
      [
        "instCon",
        -12.733834613140516
      ],
      [
        "sMaximal",
        -12.734618883027146
      ],
      [
        "opcycles",
        -12.738134560440468
      ],
      [
        "CommMagma",
        -12.741677101441116
      ],
      [
        "ltrafilter",
        -12.748158164437124
      ],
      [
        "ofibrantObject",
        -12.750002053450338
      ],
      [
        "LocalizationMa",
        -12.750595317098156
      ],
      [
        "Partition",
        -12.7506986273712
      ],
      [
        "rmGroup",
        -12.751038151524684
      ],
      [
        "HasHomology",
        -12.754404323804188
      ],
      [
        "StrictlyUnitary",
        -12.75587675560218
      ],
      [
        "mixedSpace",
        -12.766933562058156
      ],
      [
        "FinL",
        -12.76746298370195
      ],
      [
        "Î´",
        -12.768407325338028
      ],
      [
        "normedRing",
        -12.769117081704954
      ],
      [
        "StarModule",
        -12.771143896120847
      ],
      [
        "MagmaCat",
        -12.771556793157412
      ],
      [
        "Dom",
        -12.771598840643161
      ],
      [
        "ReflQuiver",
        -12.773483031031304
      ],
      [
        "sSup",
        -12.774054192408467
      ],
      [
        "IsFractionRing",
        -12.775201231146905
      ],
      [
        "Quot",
        -12.775224057896944
      ],
      [
        "Restricted",
        -12.775939098242883
      ],
      [
        "subtype",
        -12.77622381202935
      ],
      [
        "toSubsemiring",
        -12.77678410007881
      ],
      [
        "AddMagmaCat",
        -12.778115899909288
      ],
      [
        "index",
        -12.778371024485526
      ],
      [
        "sFG",
        -12.77946708704161
      ],
      [
        "Operator",
        -12.779859651079384
      ],
      [
        "Invertible",
        -12.781523267590293
      ],
      [
        "commRingCat",
        -12.78153271073433
      ],
      [
        "toPs",
        -12.784823588716176
      ],
      [
        "FreeAddMagma",
        -12.785248580140227
      ],
      [
        "oEMetricSpace",
        -12.786465794661282
      ],
      [
        "OpenNormal",
        -12.78762554322957
      ],
      [
        "Bipointed",
        -12.788448052580264
      ],
      [
        "ValueGroup",
        -12.788938671477752
      ],
      [
        "WithFibrations",
        -12.789951234548205
      ],
      [
        "Encoding",
        -12.791665605463333
      ],
      [
        "FiniteMeasure",
        -12.792573473889995
      ],
      [
        "Mop",
        -12.794215874096821
      ],
      [
        "Germ",
        -12.798136434203865
      ],
      [
        "Kan",
        -12.7988719990175
      ],
      [
        "ĠPart",
        -12.800104173835791
      ],
      [
        "oMetricSpace",
        -12.801920397956412
      ],
      [
        "Pullbacks",
        -12.801927660369396
      ],
      [
        "OneHom",
        -12.802451665174136
      ],
      [
        "inearOrder",
        -12.803079054548792
      ],
      [
        "Open",
        -12.80344974889629
      ],
      [
        "toIsOrdered",
        -12.806932802076489
      ],
      [
        "instNegInt",
        -12.807614225562684
      ],
      [
        "quotient",
        -12.811035649559777
      ],
      [
        "ShiftOppositeIn",
        -12.811060340004591
      ],
      [
        "Subm",
        -12.811328264630404
      ],
      [
        "instPreregular",
        -12.813527617085667
      ],
      [
        "MulOfFintypeOf",
        -12.81428475793634
      ],
      [
        "Maximal",
        -12.814912308075396
      ],
      [
        "Laurent",
        -12.815305259160919
      ],
      [
        "nnnorm",
        -12.815755821884492
      ],
      [
        "ĠProfinite",
        -12.815778083282183
      ],
      [
        "instI",
        -12.816599975570247
      ],
      [
        "Not",
        -12.817753523005518
      ],
      [
        "toAddAction",
        -12.817878752296412
      ],
      [
        "stdSimplex",
        -12.81838301083463
      ],
      [
        "epresentation",
        -12.821863992156002
      ],
      [
        "instInhabited",
        -12.822630947935545
      ],
      [
        "Pure",
        -12.824142165282622
      ],
      [
        "System",
        -12.824946933207931
      ],
      [
        "Y",
        -12.82520007146087
      ],
      [
        "Enriched",
        -12.827142642679048
      ],
      [
        "Inner",
        -12.827874761151568
      ],
      [
        "Indep",
        -12.839075365467185
      ],
      [
        "ofHom",
        -12.84682551020148
      ],
      [
        "prop",
        -12.847365331741084
      ],
      [
        "sInf",
        -12.847523110877106
      ],
      [
        "OneClass",
        -12.850188835972101
      ],
      [
        "NonUnitalRingHom",
        -12.850452967632364
      ],
      [
        "monoidal",
        -12.850818913398271
      ],
      [
        "hasLimit",
        -12.8510911006488
      ],
      [
        "instMin",
        -12.851777167794808
      ],
      [
        "Parser",
        -12.85256806366433
      ],
      [
        "ontinuousSMul",
        -12.853363252709276
      ],
      [
        "perm",
        -12.853438154667243
      ],
      [
        "irichlet",
        -12.855284131167661
      ],
      [
        "Elements",
        -12.858944691602275
      ],
      [
        "Skeleton",
        -12.860352019324381
      ],
      [
        "CompactSpace",
        -12.86050552979058
      ],
      [
        "Exact",
        -12.861260061166295
      ],
      [
        "noidalLeftAction",
        -12.86187576026673
      ],
      [
        "ĠOption",
        -12.86201848583384
      ],
      [
        "LocalizedModule",
        -12.862801115795044
      ],
      [
        "closedBall",
        -12.863606706800592
      ],
      [
        "tinuousLinearMap",
        -12.864814159516342
      ],
      [
        "ContinuousStar",
        -12.865047156706293
      ],
      [
        "binary",
        -12.86604536253816
      ],
      [
        "MapSupportedIn",
        -12.866352161756698
      ],
      [
        "AtPrime",
        -12.867326384440453
      ],
      [
        "enCo",
        -12.867478367998547
      ],
      [
        "ZeroMorphisms",
        -12.867555552685928
      ],
      [
        "LeftFraction",
        -12.8682186364132
      ],
      [
        "ommMonoidWithOne",
        -12.86933914506162
      ],
      [
        "Bimon",
        -12.874411758331043
      ],
      [
        "isOrdered",
        -12.874840730405982
      ],
      [
        "ddCommGroup",
        -12.878812685170946
      ],
      [
        "inner",
        -12.878901596310346
      ],
      [
        "oid",
        -12.882955924045078
      ],
      [
        "Sphere",
        -12.88364723824628
      ],
      [
        "instSeminormed",
        -12.886714906426121
      ],
      [
        "Descr",
        -12.887293680348787
      ],
      [
        "CompHaus",
        -12.889237594582205
      ],
      [
        "degreeLT",
        -12.88993175040769
      ],
      [
        "Irreducible",
        -12.890239328557566
      ],
      [
        "ContinuousSMul",
        -12.890817084280329
      ],
      [
        "convolution",
        -12.891770018303424
      ],
      [
        ")))))))))))))",
        -12.892005156973402
      ],
      [
        "SemilatInf",
        -12.89274736132459
      ],
      [
        "AddLeftMono",
        -12.892763987458935
      ],
      [
        "Epi",
        -12.893826887866584
      ],
      [
        "Monic",
        -12.893870205033124
      ],
      [
        "restrictScalars",
        -12.894565507705895
      ],
      [
        "ĠFilter",
        -12.894621865316267
      ],
      [
        "Heyt",
        -12.895705671806752
      ],
      [
        "diagram",
        -12.895935653642113
      ],
      [
        "Commute",
        -12.89702341364772
      ],
      [
        "AlgHomClass",
        -12.897345357879619
      ],
      [
        "vadd",
        -12.897970359077018
      ],
      [
        "integer",
        -12.898933510192103
      ],
      [
        "CommSemigroup",
        -12.902435645691057
      ],
      [
        "AlgCl",
        -12.90338824261364
      ],
      [
        "terminal",
        -12.906405072879364
      ],
      [
        "isMono",
        -12.90881266727682
      ],
      [
        "angle",
        -12.909226565228462
      ],
      [
        "ormedAddGroupHom",
        -12.913189869920139
      ],
      [
        "Refine",
        -12.917820575115371
      ],
      [
        "PushoutI",
        -12.920699032814703
      ],
      [
        "Away",
        -12.921538817084146
      ],
      [
        "Cont",
        -12.922956523979106
      ],
      [
        "king",
        -12.923949990978068
      ],
      [
        "MulActionHom",
        -12.92468909188397
      ],
      [
        "SplittingField",
        -12.92735986367525
      ],
      [
        "WeakEquivalences",
        -12.929853494001602
      ],
      [
        "iltration",
        -12.930572787113219
      ],
      [
        "BoolRing",
        -12.932799529903061
      ],
      [
        "Pseudo",
        -12.933420730281835
      ],
      [
        "HomologyData",
        -12.934354164643526
      ],
      [
        "finite",
        -12.937804800515512
      ],
      [
        "LeftResolution",
        -12.94250300589042
      ],
      [
        "inf",
        -12.94265472441952
      ],
      [
        "nAssoc",
        -12.946557983816078
      ],
      [
        "Calculus",
        -12.948690330937097
      ],
      [
        "hasLimitsOfShape",
        -12.948701896419283
      ],
      [
        "Nobeling",
        -12.94870226782627
      ],
      [
        "shift",
        -12.949258568652017
      ],
      [
        "Partial",
        -12.950261837375116
      ],
      [
        "preserves",
        -12.954156995043864
      ],
      [
        "desc",
        -12.95758729688345
      ],
      [
        "Pell",
        -12.957897991592802
      ],
      [
        "ĠinstZero",
        -12.960079952020113
      ],
      [
        "FinB",
        -12.960643920713645
      ],
      [
        "NonUnitalAlgHom",
        -12.961203123691224
      ],
      [
        "DiscrTree",
        -12.9619193672267
      ],
      [
        "Graded",
        -12.96254356153799
      ],
      [
        "CancelSemigroup",
        -12.966467905178044
      ],
      [
        "DecidableRel",
        -12.966563145242937
      ],
      [
        "HasWeakSheafify",
        -12.970162897428564
      ],
      [
        "RestrictScalars",
        -12.971169080315569
      ],
      [
        "over",
        -12.97385776138379
      ],
      [
        "fixingSubgroup",
        -12.97431501644281
      ],
      [
        "reeGroupoid",
        -12.97552115172494
      ],
      [
        "CategoryOver",
        -12.979138366316391
      ],
      [
        "AffineIsometry",
        -12.981664868912283
      ],
      [
        "instF",
        -12.982570617434106
      ],
      [
        "instOrderTop",
        -12.983962749301178
      ],
      [
        "instIntCast",
        -12.98761264289979
      ],
      [
        "fact",
        -12.989460690140543
      ],
      [
        "AddAct",
        -12.989590305036172
      ],
      [
        "nil",
        -12.991381329295555
      ],
      [
        "Value",
        -12.991691991486299
      ],
      [
        "creteCategoryAdd",
        -12.99172462986169
      ],
      [
        "oundedLatticeHom",
        -12.992627203856287
      ],
      [
        "instMonoidal",
        -12.994949062622586
      ],
      [
        "principal",
        -12.9963782883994
      ],
      [
        "ĠFinite",
        -12.999332636861368
      ],
      [
        "ingleFunctors",
        -12.999662220841344
      ],
      [
        "GaloisIn",
        -13.000574023306811
      ],
      [
        "InvolutiveNeg",
        -13.002835688604819
      ],
      [
        "toNonAssoc",
        -13.003326674982148
      ],
      [
        "sColimitOfHas",
        -13.00493745288174
      ],
      [
        "Faithful",
        -13.005372468334588
      ],
      [
        "SemilatSupCat",
        -13.00695658335907
      ],
      [
        "CStar",
        -13.007157925904803
      ],
      [
        "Locally",
        -13.007795536627413
      ],
      [
        "instSizeOf",
        -13.00902038317292
      ],
      [
        "Antitone",
        -13.00987989377401
      ],
      [
        "Prim",
        -13.010037039726953
      ],
      [
        "uncurry",
        -13.01039496055456
      ],
      [
        "WellOrder",
        -13.010922681170534
      ],
      [
        "AddNat",
        -13.015164094347444
      ],
      [
        "Default",
        -13.017622765019386
      ],
      [
        "ĠPartOrd",
        -13.017992269352208
      ],
      [
        "bility",
        -13.022920890194497
      ],
      [
        "Relation",
        -13.023203214910453
      ],
      [
        "free",
        -13.02327790390356
      ],
      [
        "orbitRel",
        -13.025570412811586
      ],
      [
        "Di",
        -13.026622386913072
      ],
      [
        "Torsor",
        -13.030886705673746
      ],
      [
        "ZSMul",
        -13.032377816731096
      ],
      [
        "default",
        -13.032962204779492
      ],
      [
        "instSmall",
        -13.035118132591045
      ],
      [
        "homGroup",
        -13.03527950102906
      ],
      [
        "exists",
        -13.035433681862678
      ],
      [
        "FunctorObj",
        -13.035900422849192
      ],
      [
        "toHom",
        -13.03592034032727
      ],
      [
        "inclusion",
        -13.037513230759105
      ],
      [
        "MonoidalClosed",
        -13.037737191219849
      ],
      [
        "Bijective",
        -13.039403666868115
      ],
      [
        "IsBigO",
        -13.041722127747288
      ],
      [
        "haar",
        -13.042401870982136
      ],
      [
        "Finpartition",
        -13.04371873303861
      ],
      [
        "metricSpace",
        -13.044698994719564
      ],
      [
        "domain",
        -13.049930960132915
      ],
      [
        "toRingHom",
        -13.0514721964182
      ],
      [
        "seminormed",
        -13.052658773699337
      ],
      [
        "homRe",
        -13.054945645094161
      ],
      [
        "Expr",
        -13.055407004745303
      ],
      [
        "FiniteOrder",
        -13.05658064376102
      ],
      [
        "ÏĦ",
        -13.05735647475526
      ],
      [
        "ĠinstSubN",
        -13.057944536935
      ],
      [
        "asHomology",
        -13.060066132682582
      ],
      [
        "imax",
        -13.061946176643136
      ],
      [
        "ĠCommRing",
        -13.062900160523071
      ],
      [
        "Base",
        -13.062959151318577
      ],
      [
        "me",
        -13.065201735344733
      ],
      [
        "Rank",
        -13.066165552101532
      ],
      [
        "rmedCommRing",
        -13.069562053306235
      ],
      [
        "Loc",
        -13.069763258009626
      ],
      [
        "owerSeries",
        -13.070937173466607
      ],
      [
        "PreEnvelGroup",
        -13.074386383387221
      ],
      [
        "IsStableUnder",
        -13.075232037949583
      ],
      [
        "cylinder",
        -13.077251657588283
      ],
      [
        "rightOp",
        -13.078051157845586
      ],
      [
        "lexDisc",
        -13.079001170572184
      ],
      [
        "sup",
        -13.07986769606784
      ],
      [
        "FGModuleCat",
        -13.082476259595783
      ],
      [
        "HasColimit",
        -13.082950135093824
      ],
      [
        "starRingE",
        -13.083346580852588
      ],
      [
        "Infinite",
        -13.084084024929226
      ],
      [
        "Clopen",
        -13.084376684467877
      ],
      [
        "setoid",
        -13.086083034703364
      ],
      [
        "ennreal",
        -13.086270000457219
      ],
      [
        "HasBiproduct",
        -13.087546737462963
      ],
      [
        "Fork",
        -13.089892303040406
      ],
      [
        "Galois",
        -13.090754432099377
      ],
      [
        "AddGroupSeminorm",
        -13.091513671711484
      ],
      [
        "Projectivization",
        -13.091711633054569
      ],
      [
        "hasColimit",
        -13.091761499739821
      ],
      [
        "termediateField",
        -13.092567075488574
      ],
      [
        "instMax",
        -13.092980981372241
      ],
      [
        "Lawful",
        -13.095842406146142
      ],
      [
        "unmop",
        -13.099667327938782
      ],
      [
        "PullbacksT",
        -13.100131203029225
      ],
      [
        "instLocally",
        -13.100459593860418
      ],
      [
        "IsIntegral",
        -13.10517762444054
      ],
      [
        "Dihedral",
        -13.106962626801712
      ],
      [
        "VectorBundle",
        -13.107177421821866
      ],
      [
        "iterate",
        -13.108634192278421
      ],
      [
        "instMulAction",
        -13.112650008630197
      ],
      [
        "OppositeShift",
        -13.114814869191665
      ],
      [
        "entralizer",
        -13.1155784368795
      ],
      [
        "toScheme",
        -13.1160076650937
      ],
      [
        "ax",
        -13.116896642619702
      ],
      [
        "IsPrime",
        -13.1173833556424
      ],
      [
        "two",
        -13.120110719276258
      ],
      [
        "graph",
        -13.1215673923707
      ],
      [
        "Symmetric",
        -13.12165472210414
      ],
      [
        "tensorHom",
        -13.125597645487652
      ],
      [
        "ifibrantObject",
        -13.127206198533829
      ],
      [
        "ightCancelMonoid",
        -13.128362341392933
      ],
      [
        "CatEnriched",
        -13.129655789165845
      ],
      [
        "vQP",
        -13.129664304999526
      ],
      [
        "Factorisation",
        -13.13044245082386
      ],
      [
        "directed",
        -13.130573223468783
      ],
      [
        "Nonneg",
        -13.132164926881398
      ],
      [
        "ofNNReal",
        -13.132915141592854
      ],
      [
        "Realize",
        -13.133320082098638
      ],
      [
        "Abs",
        -13.134596631289146
      ],
      [
        "counit",
        -13.134724061384805
      ],
      [
        "opEquiv",
        -13.1347537392146
      ],
      [
        "locallyFinsupp",
        -13.138228036944984
      ],
      [
        "instHasShift",
        -13.138843511032325
      ],
      [
        "al",
        -13.138999187311843
      ],
      [
        "rrows",
        -13.141987841870854
      ],
      [
        "LimitsOfShape",
        -13.142904766255693
      ],
      [
        "toLinearOrder",
        -13.144792668040843
      ],
      [
        "choose",
        -13.145424928454423
      ],
      [
        "CardinalFiltered",
        -13.145530012644526
      ],
      [
        "addMonoid",
        -13.146181899140474
      ],
      [
        "bj",
        -13.147831787508261
      ],
      [
        "NatHAdd",
        -13.148314639881104
      ],
      [
        "continuous",
        -13.148322224453064
      ],
      [
        "ith",
        -13.148571394968862
      ],
      [
        "fiber",
        -13.148611548829287
      ],
      [
        "points",
        -13.153899721141752
      ],
      [
        "niformCon",
        -13.157298504692397
      ],
      [
        "FilterBasis",
        -13.157470848344932
      ],
      [
        "bind",
        -13.158786363975246
      ],
      [
        "enumerable",
        -13.161116678006
      ],
      [
        "PrimitiveRoot",
        -13.161193863622975
      ],
      [
        "OplaxMonoidal",
        -13.162469025171335
      ],
      [
        "Cocycle",
        -13.164495037345048
      ],
      [
        "deriv",
        -13.167733156252282
      ],
      [
        "tsum",
        -13.169834004900917
      ],
      [
        "SupHom",
        -13.170933588322715
      ],
      [
        "})))",
        -13.171538077707996
      ],
      [
        "Tree",
        -13.175184032865149
      ],
      [
        "retrivialization",
        -13.17600112166129
      ],
      [
        "LeftKanExtension",
        -13.176259247191616
      ],
      [
        "cos",
        -13.17646080182189
      ],
      [
        "leftUnitor",
        -13.176804259579146
      ],
      [
        "addMonoidal",
        -13.176983556883473
      ],
      [
        "ow",
        -13.177027730610394
      ],
      [
        "Colimit",
        -13.178045656647887
      ],
      [
        "»",
        -13.179297586878036
      ],
      [
        "«",
        -13.179297586878036
      ],
      [
        "SuccOrder",
        -13.183145188538585
      ],
      [
        "Ioi",
        -13.183932225094832
      ],
      [
        "toEquiv",
        -13.18494370890187
      ],
      [
        "Representable",
        -13.185512125644294
      ],
      [
        "reeAddGroup",
        -13.187876106075766
      ],
      [
        "Ore",
        -13.18865692200362
      ],
      [
        "Even",
        -13.188860833681968
      ],
      [
        "IsManifold",
        -13.189037098518241
      ],
      [
        "Ħ",
        -13.191570740135337
      ],
      [
        "iling",
        -13.191708077309217
      ],
      [
        "Split",
        -13.197035177654337
      ],
      [
        "equalizer",
        -13.197696417308201
      ],
      [
        "Ġ[",
        -13.197938981746152
      ],
      [
        "ConvergenceC",
        -13.20052974239916
      ],
      [
        "update",
        -13.200845744939233
      ],
      [
        "AdicComplet",
        -13.20133705658738
      ],
      [
        "AbsoluteValue",
        -13.201533659197846
      ],
      [
        "curry",
        -13.202369038628667
      ],
      [
        "sigmaObj",
        -13.203790954863575
      ],
      [
        "SMulWithZero",
        -13.204317272352363
      ],
      [
        "sIdempotentElem",
        -13.205125410130531
      ],
      [
        "Orient",
        -13.205305498468373
      ],
      [
        "multicospan",
        -13.205458752253577
      ],
      [
        "âĤģâĤĤ",
        -13.205988893322717
      ],
      [
        "rightUnitor",
        -13.206426376145636
      ],
      [
        "Full",
        -13.206851915400616
      ],
      [
        "asZeroObject",
        -13.207269551423735
      ],
      [
        "instBialgebra",
        -13.207676558312091
      ],
      [
        "isAlgebra",
        -13.208126289975239
      ],
      [
        "affineOpen",
        -13.209084968112947
      ],
      [
        "uniformi",
        -13.209189457397823
      ],
      [
        "alObject",
        -13.20946910367326
      ],
      [
        "BialgHom",
        -13.210086028018958
      ],
      [
        "âĤ",
        -13.210320156072784
      ],
      [
        "pure",
        -13.214090249830267
      ],
      [
        "HasCokernel",
        -13.214280810892639
      ],
      [
        "aeval",
        -13.215007577706498
      ],
      [
        "PMF",
        -13.216757791471903
      ],
      [
        "gcd",
        -13.218685747148534
      ],
      [
        "Braided",
        -13.22251459732963
      ],
      [
        "Lp",
        -13.22295307717993
      ],
      [
        "instAddC",
        -13.224975818809813
      ],
      [
        "underlying",
        -13.225238421061157
      ],
      [
        "CoalgHom",
        -13.225722185085539
      ],
      [
        "DiscreteT",
        -13.227023591700373
      ],
      [
        "instPowNat",
        -13.227549245009687
      ],
      [
        "ividedPowers",
        -13.228062123127025
      ],
      [
        "Localized",
        -13.22981106491157
      ],
      [
        "ang",
        -13.231026125808578
      ],
      [
        "ContinuousA",
        -13.231189662759599
      ],
      [
        "count",
        -13.231362458958134
      ],
      [
        "hasLe",
        -13.23164730845353
      ],
      [
        "Period",
        -13.232654958332478
      ],
      [
        "head",
        -13.233430484228828
      ],
      [
        "racket",
        -13.233792499539998
      ],
      [
        "Presented",
        -13.234346000703013
      ],
      [
        "fin",
        -13.235300019043208
      ],
      [
        "true",
        -13.236378398223597
      ],
      [
        "ModuleSubtypeMem",
        -13.236793878366731
      ],
      [
        "IsEmpty",
        -13.237983253326206
      ],
      [
        "sLimitOf",
        -13.237998747054828
      ],
      [
        "Step",
        -13.239044177349976
      ],
      [
        "HImp",
        -13.239139840508184
      ],
      [
        "sections",
        -13.240963849984231
      ],
      [
        "nePoint",
        -13.24233704923063
      ],
      [
        "zpowers",
        -13.243440045114824
      ],
      [
        "relatively",
        -13.243659515965668
      ],
      [
        "toDual",
        -13.243767595236875
      ],
      [
        "aceMap",
        -13.244631173342388
      ],
      [
        "IsLocally",
        -13.246140540942555
      ],
      [
        "eqToHom",
        -13.247958897719048
      ],
      [
        "sBoolAlg",
        -13.248807132228375
      ],
      [
        "Edge",
        -13.249883505681765
      ],
      [
        "Coprime",
        -13.252520328255468
      ],
      [
        "LENat",
        -13.252657614953723
      ],
      [
        "Coalg",
        -13.253313567215564
      ],
      [
        "Eval",
        -13.25444331296488
      ],
      [
        "trivial",
        -13.254466734308409
      ],
      [
        "append",
        -13.256746324369608
      ],
      [
        "onoFactorisation",
        -13.259004338278984
      ],
      [
        "Ge",
        -13.260064888936974
      ],
      [
        "ffineSpan",
        -13.260242200849294
      ],
      [
        "grothendieck",
        -13.260355273836822
      ],
      [
        "Ïĥ",
        -13.261139188363256
      ],
      [
        "toPre",
        -13.264420626849684
      ],
      [
        "ndofunctor",
        -13.26643016409275
      ],
      [
        "ZNum",
        -13.266782030626
      ],
      [
        "Hull",
        -13.266869637009538
      ],
      [
        "LucasLehmer",
        -13.2669526498698
      ],
      [
        "ĠDyck",
        -13.26696744142375
      ],
      [
        "Total",
        -13.267962583819045
      ],
      [
        "ullbackShift",
        -13.268215946031589
      ],
      [
        "Perfect",
        -13.269354339233168
      ],
      [
        "lieAlgebra",
        -13.271008408474346
      ],
      [
        "IsTorsionFree",
        -13.271100396732296
      ],
      [
        "instDFunLike",
        -13.274075091858084
      ],
      [
        "instHAppend",
        -13.275920229022237
      ],
      [
        "'.",
        -13.276164474741982
      ],
      [
        "HAppend",
        -13.276927752928207
      ],
      [
        "Invariant",
        -13.278621445001892
      ],
      [
        "ultilinearSeries",
        -13.280193592257401
      ],
      [
        "_))",
        -13.281767511843086
      ],
      [
        "hMod",
        -13.282415898397163
      ],
      [
        "Cyclotomic",
        -13.283167129818356
      ],
      [
        "instNormedAdd",
        -13.284223494668007
      ],
      [
        "toG",
        -13.286977661100204
      ],
      [
        "Game",
        -13.287579999878197
      ],
      [
        "eTil",
        -13.28896519828061
      ],
      [
        "Cauchy",
        -13.290057906277756
      ],
      [
        "RatCast",
        -13.29053699086329
      ],
      [
        "Two",
        -13.290985098243585
      ],
      [
        "pre",
        -13.291026407333044
      ],
      [
        "instAppend",
        -13.291822955236025
      ],
      [
        "BaseChange",
        -13.292157151768553
      ],
      [
        "TestFunction",
        -13.295099115169137
      ],
      [
        "Îµ",
        -13.29719356460276
      ],
      [
        "OfIsTopological",
        -13.29822318370001
      ],
      [
        "instAlgebraOf",
        -13.29852824380931
      ],
      [
        "Nodup",
        -13.299433430737736
      ],
      [
        "erase",
        -13.299437710716482
      ],
      [
        "Range",
        -13.301710277439918
      ],
      [
        "GrpObj",
        -13.30174358088394
      ],
      [
        "continuousConst",
        -13.301821692300111
      ],
      [
        "HasPullback",
        -13.302968487938553
      ],
      [
        "StarAlgEquiv",
        -13.303273091209878
      ],
      [
        "sColimitsOfShape",
        -13.304233368162716
      ],
      [
        "Lipschitz",
        -13.306845526705327
      ],
      [
        "Young",
        -13.308027140957794
      ],
      [
        "HasS",
        -13.308199954465692
      ],
      [
        "target",
        -13.309340732376754
      ],
      [
        "vert",
        -13.309884061393968
      ],
      [
        "Impl",
        -13.310577169688528
      ],
      [
        "minpoly",
        -13.312793451872334
      ],
      [
        "Decomposition",
        -13.313891754715343
      ],
      [
        "nterior",
        -13.314903078223718
      ],
      [
        "ally",
        -13.315254452250084
      ],
      [
        "rootsOfUnity",
        -13.315538673346683
      ],
      [
        "NNDist",
        -13.315719389366944
      ],
      [
        "cardinal",
        -13.31582388936905
      ],
      [
        "toRightCancel",
        -13.315890715629973
      ],
      [
        "commMonoid",
        -13.316055997412935
      ],
      [
        "piObj",
        -13.316782381747482
      ],
      [
        "WithHomology",
        -13.317320335144917
      ],
      [
        "ecEmpty",
        -13.319230500746112
      ],
      [
        "curriedTensor",
        -13.319400604903539
      ],
      [
        "na",
        -13.320658582863633
      ],
      [
        "MapsTo",
        -13.32260323260532
      ],
      [
        "drop",
        -13.325791268000353
      ],
      [
        "Aut",
        -13.32705107715925
      ],
      [
        "indicator",
        -13.327247857653171
      ],
      [
        "iso",
        -13.329125432468604
      ],
      [
        "HasSheafify",
        -13.331081174933697
      ],
      [
        "Non",
        -13.332996776894209
      ],
      [
        "categoryWith",
        -13.333061779465506
      ],
      [
        "Alternating",
        -13.333156787798655
      ],
      [
        "IsUniform",
        -13.334149310910277
      ],
      [
        "Triangulated",
        -13.334398435324177
      ],
      [
        "toMonoidHom",
        -13.335155962425482
      ],
      [
        "RingHomCarrier",
        -13.337108561289359
      ],
      [
        "ibrantObject",
        -13.337454735410597
      ],
      [
        "Divisible",
        -13.338867291615665
      ],
      [
        "toMon",
        -13.339227883801495
      ],
      [
        "ModEq",
        -13.339346309453195
      ],
      [
        "uniformSpace",
        -13.343648758411495
      ],
      [
        "type",
        -13.345441461834092
      ],
      [
        "aluationSubring",
        -13.345487803323788
      ],
      [
        "MDifferentiable",
        -13.345926259049616
      ],
      [
        "IsRegular",
        -13.346372913069079
      ],
      [
        "opical",
        -13.346802794981244
      ],
      [
        "IsWellOrder",
        -13.347195017340898
      ],
      [
        "instMod",
        -13.347278893301697
      ],
      [
        "instBoundedOrder",
        -13.34785214862573
      ],
      [
        "Sequence",
        -13.347909530711007
      ],
      [
        "orthogonal",
        -13.348730286744216
      ],
      [
        "hasBiproduct",
        -13.35029130271997
      ],
      [
        "WithCon",
        -13.35057670519316
      ],
      [
        "WellFoundedLT",
        -13.35091909049148
      ],
      [
        "WeakDual",
        -13.352108599192018
      ],
      [
        ";",
        -13.352380297959511
      ],
      [
        "IsFiltered",
        -13.353681932202658
      ],
      [
        "OfElements",
        -13.353928944031127
      ],
      [
        "nnectedComponent",
        -13.356141875513
      ],
      [
        "Pic",
        -13.357737136413657
      ],
      [
        "Bifunctor",
        -13.357844024512818
      ],
      [
        "eminormedRing",
        -13.35969814443237
      ],
      [
        "xterior",
        -13.361428403929553
      ],
      [
        "LeftCancelMonoid",
        -13.36159270308308
      ],
      [
        "damentalGroupoid",
        -13.361786566746169
      ],
      [
        "Reduced",
        -13.36199097615048
      ],
      [
        "NoZeroDivisors",
        -13.361995875911417
      ],
      [
        "SigmaFinite",
        -13.362283201575785
      ],
      [
        "instCancelMonoid",
        -13.367075885906145
      ],
      [
        "Measur",
        -13.368247349294759
      ],
      [
        "CharP",
        -13.368936429655342
      ],
      [
        "toComma",
        -13.369344127193639
      ],
      [
        "Encodable",
        -13.370130690683798
      ],
      [
        "instInf",
        -13.372001033821732
      ],
      [
        "instAddTorsor",
        -13.376671702675512
      ],
      [
        "tSep",
        -13.377457840396367
      ],
      [
        "IsPr",
        -13.379833834429313
      ],
      [
        "IsCo",
        -13.38010000172466
      ],
      [
        "ins",
        -13.3804287990016
      ],
      [
        "Fla",
        -13.380666743510247
      ],
      [
        "AddLeftCancel",
        -13.382582982521399
      ],
      [
        "toAffine",
        -13.383541552767673
      ],
      [
        "HasEquiv",
        -13.383568842069462
      ],
      [
        "rivat",
        -13.383640201196009
      ],
      [
        "ypeToCat",
        -13.38370732716239
      ],
      [
        "FilteredColimits",
        -13.387039665347773
      ],
      [
        "PreservesLimit",
        -13.390163833632329
      ],
      [
        "IsNilpotent",
        -13.390955621556245
      ],
      [
        "ConstSMul",
        -13.391173514908067
      ],
      [
        "Cycle",
        -13.391599322774741
      ],
      [
        "Multispan",
        -13.392817121896552
      ],
      [
        "Temper",
        -13.393083853571724
      ],
      [
        "hasForgetTo",
        -13.394084653069285
      ],
      [
        "Universal",
        -13.396108321532207
      ],
      [
        "âĤĤâĤĥ",
        -13.39612846401845
      ],
      [
        "Equalizer",
        -13.397484711045708
      ],
      [
        "Refl",
        -13.399025835137964
      ],
      [
        "z",
        -13.4017048718454
      ],
      [
        "FourierTransform",
        -13.401979584524732
      ],
      [
        "pred",
        -13.40205087457788
      ],
      [
        "actorizationData",
        -13.40302689669392
      ],
      [
        "ingHomSurjective",
        -13.407435273074
      ],
      [
        "sin",
        -13.409219131510625
      ],
      [
        "groupWithZero",
        -13.40994751643099
      ],
      [
        "uliftYoneda",
        -13.412642160154075
      ],
      [
        "pushforward",
        -13.412705581222117
      ],
      [
        "sigma",
        -13.412866449566849
      ],
      [
        "forgetTo",
        -13.412936634775209
      ],
      [
        "GroupSeminorm",
        -13.413311125696445
      ],
      [
        "toList",
        -13.41513243721683
      ],
      [
        "NFA",
        -13.415757479871822
      ],
      [
        "oundedContinuous",
        -13.416096768770611
      ],
      [
        "Comput",
        -13.416220159612816
      ],
      [
        "InfHom",
        -13.417043608565809
      ],
      [
        "eftExtension",
        -13.417407066626193
      ],
      [
        "AsBoolRing",
        -13.41901849318047
      ],
      [
        "alWor",
        -13.419342266953404
      ],
      [
        "powersetCard",
        -13.41960065030936
      ],
      [
        "HomCarrier",
        -13.420111081899737
      ],
      [
        "restriction",
        -13.420699993430619
      ],
      [
        "SelfAdjoint",
        -13.420849862755771
      ],
      [
        "OfHas",
        -13.421382148524764
      ],
      [
        "toSubmonoid",
        -13.422573343235667
      ],
      [
        "Cofan",
        -13.425795861394537
      ],
      [
        "FinBoolAlg",
        -13.426759765589033
      ],
      [
        "Strict",
        -13.428010118663021
      ],
      [
        "onoidWithOne",
        -13.428720368103118
      ],
      [
        "cell",
        -13.4293670074225
      ],
      [
        "instSuccOrder",
        -13.431668083438236
      ],
      [
        "sChain",
        -13.432966046730227
      ],
      [
        "coeTo",
        -13.433481000057505
      ],
      [
        "UnitDis",
        -13.435271794233227
      ],
      [
        "Gaussian",
        -13.435990562012597
      ],
      [
        "Manifold",
        -13.438300173357366
      ],
      [
        "LeftAction",
        -13.441048907295182
      ],
      [
        "factor",
        -13.44273217564352
      ],
      [
        "RegularE",
        -13.443165068137384
      ],
      [
        "lim",
        -13.443341612791183
      ],
      [
        "ModularForm",
        -13.444150153857063
      ],
      [
        "nstFunLikeForall",
        -13.444388953818951
      ],
      [
        "Ġinst",
        -13.446117364864506
      ],
      [
        "MulOf",
        -13.44620646841659
      ],
      [
        "BialgEquiv",
        -13.448537346044256
      ],
      [
        "PseudoE",
        -13.44904179701765
      ],
      [
        "Mem",
        -13.449150290988921
      ],
      [
        "Antidiagonal",
        -13.450171857131192
      ],
      [
        "HasSum",
        -13.452914129602714
      ],
      [
        "ShiftedHom",
        -13.453483780964731
      ],
      [
        "incl",
        -13.454456248652956
      ],
      [
        "fixing",
        -13.45550893541224
      ],
      [
        "ma",
        -13.455790398462103
      ],
      [
        "Tagged",
        -13.455813590177868
      ],
      [
        "leadingCoeff",
        -13.45751706294081
      ],
      [
        "SFinite",
        -13.459999790551809
      ],
      [
        "dual",
        -13.460188833437874
      ],
      [
        "reverse",
        -13.460521464358518
      ],
      [
        "cone",
        -13.46215092237089
      ],
      [
        "Isometry",
        -13.463097782872422
      ],
      [
        "rec",
        -13.46541074309437
      ],
      [
        "sRing",
        -13.467878682100606
      ],
      [
        "abelian",
        -13.468360790702459
      ],
      [
        "FreeRefl",
        -13.469339168735495
      ],
      [
        "isPrim",
        -13.471642673215117
      ],
      [
        "Trailing",
        -13.472108808376369
      ],
      [
        "PreservesColimit",
        -13.472262654301444
      ],
      [
        "whiskeringRight",
        -13.472718738886481
      ],
      [
        "natAbs",
        -13.474513993122859
      ],
      [
        "AddCommMonoidOr",
        -13.47699163735065
      ],
      [
        "ence",
        -13.477060189040401
      ],
      [
        "ĠinstZeroE",
        -13.477537525372362
      ],
      [
        "coyoneda",
        -13.478399432386997
      ],
      [
        "char",
        -13.478976122772202
      ],
      [
        "groupHomology",
        -13.479522596756713
      ],
      [
        "toAddComm",
        -13.479880900119602
      ],
      [
        "Assoc",
        -13.479949702824964
      ],
      [
        "ideal",
        -13.483573233792978
      ],
      [
        "OfModule",
        -13.484517262646433
      ],
      [
        "ĠAddCommGroup",
        -13.486204269894811
      ],
      [
        "actionHom",
        -13.487744859488323
      ],
      [
        "OrderMonoidIso",
        -13.488202479376437
      ],
      [
        "nearMapIdCarrier",
        -13.489227591071813
      ],
      [
        "CoalgEquiv",
        -13.48936908751423
      ],
      [
        "HasLimit",
        -13.491177021442311
      ],
      [
        "initial",
        -13.491848471056866
      ],
      [
        "initeGalois",
        -13.491875591813606
      ],
      [
        "Inducing",
        -13.49558516226438
      ],
      [
        "closed",
        -13.49602882261548
      ],
      [
        "))))))))))))",
        -13.496636516632275
      ],
      [
        "IsMax",
        -13.499554866139787
      ],
      [
        "instSemi",
        -13.500941176956225
      ],
      [
        "toSSet",
        -13.503414645792164
      ],
      [
        "AddOre",
        -13.50573421418133
      ],
      [
        "IsFreeGroup",
        -13.506502017146003
      ],
      [
        "HasKernels",
        -13.506570404329835
      ],
      [
        "FreeAdd",
        -13.507529696570167
      ],
      [
        "leftOp",
        -13.507598893646016
      ],
      [
        "Key",
        -13.507821709608532
      ],
      [
        "generate",
        -13.508803195648785
      ],
      [
        "categoryFree",
        -13.509077742950872
      ],
      [
        "alternating",
        -13.509490289273323
      ],
      [
        "IsAdd",
        -13.510356421984117
      ],
      [
        "toSubgroup",
        -13.510748188846474
      ],
      [
        "ĠTwoP",
        -13.510971461183265
      ],
      [
        "IsP",
        -13.511446777889418
      ],
      [
        "Chain",
        -13.512575846247616
      ],
      [
        "diag",
        -13.512728575647035
      ],
      [
        "sLocalRing",
        -13.51284409967803
      ],
      [
        "tail",
        -13.513669956733374
      ],
      [
        "Limit",
        -13.51378058225949
      ],
      [
        "PositiveLinear",
        -13.513832683815421
      ],
      [
        "ymmetrify",
        -13.515342716805167
      ],
      [
        "EquivOf",
        -13.515824870207728
      ],
      [
        "Primrec",
        -13.516281415291036
      ],
      [
        "asFiber",
        -13.516583938628388
      ],
      [
        "rthonormalBasis",
        -13.517491403532635
      ],
      [
        "IsAlgebraic",
        -13.519222357627594
      ],
      [
        "EqOn",
        -13.519811842860804
      ],
      [
        "spher",
        -13.521246787065229
      ],
      [
        "IsLittleO",
        -13.521637399994795
      ],
      [
        "empty",
        -13.522426441455604
      ],
      [
        "OfSMulCommClass",
        -13.527968117741118
      ],
      [
        "inearIndependent",
        -13.52841922933926
      ],
      [
        "FloorRing",
        -13.528453802365092
      ],
      [
        "Quasi",
        -13.531332126154934
      ],
      [
        "CovBy",
        -13.5324435239917
      ],
      [
        "withConstants",
        -13.53448070990557
      ],
      [
        "tensorLeft",
        -13.534788577403093
      ],
      [
        "SignedMeasure",
        -13.539153889078381
      ],
      [
        "get",
        -13.539306519750273
      ],
      [
        "Ġ_))))))))",
        -13.539988689862401
      ],
      [
        "ave",
        -13.541731717742627
      ],
      [
        "IsNoetherian",
        -13.54521004911458
      ],
      [
        "induced",
        -13.545530196626427
      ],
      [
        "instIsTwoSided",
        -13.545562946314007
      ],
      [
        "ategoryStruct",
        -13.545719136754524
      ],
      [
        "frame",
        -13.546075622977598
      ],
      [
        "Simplicial",
        -13.546243983848509
      ],
      [
        "SomeENatTop",
        -13.546452728270953
      ],
      [
        "div",
        -13.55386129804047
      ],
      [
        "BinaryBiproduct",
        -13.554750677033457
      ],
      [
        "CommSq",
        -13.556259403436615
      ],
      [
        "ComonObj",
        -13.556319279692588
      ],
      [
        "able",
        -13.55642232718072
      ],
      [
        "copy",
        -13.55689817848959
      ],
      [
        "eTheor",
        -13.55715361702337
      ],
      [
        "instBEq",
        -13.558374600829534
      ],
      [
        "HasFinite",
        -13.558578472786461
      ],
      [
        "HasStrict",
        -13.559963750236786
      ],
      [
        "order",
        -13.561256294080001
      ],
      [
        "MemL",
        -13.561669366961375
      ],
      [
        "mpactlyGenerated",
        -13.562414709394837
      ],
      [
        "Trivial",
        -13.562720782462023
      ],
      [
        "arOrdered",
        -13.562896534487663
      ],
      [
        "Subspace",
        -13.563410680138272
      ],
      [
        "instMonad",
        -13.564210879428146
      ],
      [
        "edCommGroup",
        -13.565062180529132
      ],
      [
        "pos",
        -13.565646582422273
      ],
      [
        "intervalIntegra",
        -13.567703561189026
      ],
      [
        "diagonal",
        -13.568012390498719
      ],
      [
        "HasPullbacks",
        -13.568225670081159
      ],
      [
        "Î¼",
        -13.56957409256053
      ],
      [
        "limitsOfShape",
        -13.570014960323814
      ],
      [
        "Diffeomorph",
        -13.571063944261585
      ],
      [
        "edDistribution",
        -13.573425397658651
      ],
      [
        "AddOr",
        -13.573759914333849
      ],
      [
        "Proto",
        -13.57489192382057
      ],
      [
        "torsion",
        -13.577437729855186
      ],
      [
        "DiscreteTopology",
        -13.577568156437563
      ],
      [
        "RelHom",
        -13.578430451227815
      ],
      [
        "FDRep",
        -13.578788362160534
      ],
      [
        "Section",
        -13.579005765926876
      ],
      [
        "From",
        -13.58019663941842
      ],
      [
        "evaluation",
        -13.581158400162375
      ],
      [
        "OrderMonoidHom",
        -13.581671127807592
      ],
      [
        "Sequential",
        -13.582577048519624
      ],
      [
        "elim",
        -13.58399789719576
      ],
      [
        "IsAbsoluteValue",
        -13.585920295419978
      ],
      [
        "nstIsTopological",
        -13.585967398785861
      ],
      [
        "Ġâĭ¯)))",
        -13.586085003904778
      ],
      [
        "Day",
        -13.587403511456804
      ],
      [
        "instCategoryComp",
        -13.58818192613591
      ],
      [
        "ttachCells",
        -13.588888758829999
      ],
      [
        "untablyGenerated",
        -13.590603338254269
      ],
      [
        "PullbackCone",
        -13.592694957144419
      ],
      [
        "rderedAdd",
        -13.592747209955938
      ],
      [
        "factorial",
        -13.594010918465333
      ],
      [
        "Change",
        -13.594141359395529
      ],
      [
        "Ġ((_",
        -13.594601079843937
      ],
      [
        "press",
        -13.595379179731127
      ],
      [
        "oconeTypes",
        -13.596458734673163
      ],
      [
        "Size",
        -13.6013039065874
      ],
      [
        "finsu",
        -13.602704253229108
      ],
      [
        "j",
        -13.60364422554646
      ],
      [
        "Line",
        -13.603882210345478
      ],
      [
        "AddComm",
        -13.604577440224798
      ],
      [
        "Prepa",
        -13.606423504480311
      ],
      [
        "Along",
        -13.606624846370176
      ],
      [
        "Holder",
        -13.608726991102834
      ],
      [
        "Name",
        -13.60915427716542
      ],
      [
        "ntegralClosure",
        -13.610210903579215
      ],
      [
        "LimitCone",
        -13.611897245867972
      ],
      [
        "SuccStruct",
        -13.612785226144004
      ],
      [
        "Axiom",
        -13.613101628321822
      ],
      [
        "onFun",
        -13.613247255697019
      ],
      [
        "jOn",
        -13.613956851226096
      ],
      [
        "OfLE",
        -13.614749741376944
      ],
      [
        "IsC",
        -13.616653492841355
      ],
      [
        "lgHomClass",
        -13.617110152607628
      ],
      [
        "Kleisli",
        -13.617393504830355
      ],
      [
        "GCDMonoid",
        -13.619234634665421
      ],
      [
        "axBraidedFunctor",
        -13.620420037705678
      ],
      [
        "Image",
        -13.620622540131592
      ],
      [
        "inferInstance",
        -13.621496456899795
      ],
      [
        "allyDisconnected",
        -13.621641783437632
      ],
      [
        "braiding",
        -13.625308117113757
      ],
      [
        "Variable",
        -13.627294572710326
      ],
      [
        "invFun",
        -13.628179392391235
      ],
      [
        "ssociates",
        -13.62928019104356
      ],
      [
        "AddChar",
        -13.629703117862299
      ],
      [
        "toCompl",
        -13.632686275132084
      ],
      [
        "ofinite",
        -13.63300548541663
      ],
      [
        "ReflQuiv",
        -13.633282043451974
      ],
      [
        "basicOpen",
        -13.633284118596372
      ],
      [
        "IsL",
        -13.633394352051978
      ],
      [
        "Approx",
        -13.634754425928172
      ],
      [
        "instHopfAlgebra",
        -13.635983950027203
      ],
      [
        "Odd",
        -13.636206276586533
      ],
      [
        "eflection",
        -13.636487389940825
      ],
      [
        "Half",
        -13.637245762973839
      ],
      [
        "Quiv",
        -13.63744944948851
      ],
      [
        "sign",
        -13.637581586943211
      ],
      [
        "rallelFamily",
        -13.63936035871128
      ],
      [
        "fla",
        -13.639998141237992
      ],
      [
        "multicospanShape",
        -13.640691451231891
      ],
      [
        "skewAdjoint",
        -13.641501970752866
      ],
      [
        "Poly",
        -13.643360574454025
      ],
      [
        "Projection",
        -13.64494613125559
      ],
      [
        "Cofork",
        -13.645189566686208
      ],
      [
        "mAlg",
        -13.64558236852196
      ],
      [
        "nitialSeg",
        -13.647352437814675
      ],
      [
        "eLpNorm",
        -13.647507806559169
      ],
      [
        "quivLike",
        -13.64958335384619
      ],
      [
        "TangentBundle",
        -13.65148124938727
      ],
      [
        "LeftInvariant",
        -13.651686465440065
      ],
      [
        "arrow",
        -13.653355631966228
      ],
      [
        "fals",
        -13.653773373641734
      ],
      [
        "bic",
        -13.655314661921539
      ],
      [
        "Meromorphic",
        -13.656572609358836
      ],
      [
        "padic",
        -13.656905313603069
      ],
      [
        "MulRight",
        -13.656926376736184
      ],
      [
        "instLieRing",
        -13.658453862915685
      ],
      [
        "InfTopHom",
        -13.659286026551118
      ],
      [
        "instCoalgebra",
        -13.663025233797446
      ],
      [
        "ZeroAtInfty",
        -13.665154279817802
      ],
      [
        "ZeroClass",
        -13.665603920414972
      ],
      [
        "instHasPullback",
        -13.671639882936292
      ],
      [
        "LaxBraided",
        -13.67223817827118
      ],
      [
        "ContextFree",
        -13.67344672954109
      ],
      [
        "Functions",
        -13.673889614885228
      ],
      [
        "ddTorsor",
        -13.675003006357338
      ],
      [
        "HomComple",
        -13.676293749560351
      ],
      [
        "FixedPoint",
        -13.677403018743496
      ],
      [
        "Relative",
        -13.677520150725744
      ],
      [
        "seq",
        -13.677579959218235
      ],
      [
        "ashInvariantForm",
        -13.678472148588472
      ],
      [
        "toLat",
        -13.679743681438365
      ],
      [
        "instCo",
        -13.681030051650446
      ],
      [
        "additive",
        -13.68103093806416
      ],
      [
        "Thin",
        -13.681662959281693
      ],
      [
        "toLaxMonoidal",
        -13.682421820305949
      ],
      [
        "sLocalizedModule",
        -13.682540335420207
      ],
      [
        "ChosenPullbacks",
        -13.682885394690745
      ],
      [
        "initeIndexNormal",
        -13.685819341405036
      ],
      [
        "DilationEquiv",
        -13.688158142279814
      ],
      [
        "Ordered",
        -13.688857296228942
      ],
      [
        "Braiding",
        -13.689048005975609
      ],
      [
        "tChart",
        -13.689694869165088
      ],
      [
        "PredOrder",
        -13.690625148295362
      ],
      [
        "instSupSet",
        -13.691322056601553
      ],
      [
        "HasBinaryProduct",
        -13.692718052542993
      ],
      [
        "HasDerivAt",
        -13.693099969417103
      ],
      [
        "point",
        -13.694286645058614
      ],
      [
        "Short",
        -13.694828101886031
      ],
      [
        "Zariski",
        -13.695221947079707
      ],
      [
        "instUniformSpace",
        -13.695286441697482
      ],
      [
        "instSemigroup",
        -13.695501987439664
      ],
      [
        "nAssocComm",
        -13.696964432935095
      ],
      [
        "Analytic",
        -13.697323458228675
      ],
      [
        "unitIso",
        -13.698157042128685
      ],
      [
        "inEncoding",
        -13.698709097351735
      ],
      [
        "InvolutiveInv",
        -13.699008612894845
      ],
      [
        "Compatible",
        -13.700928012877284
      ],
      [
        "Coordinate",
        -13.701676786431078
      ],
      [
        "rderOf",
        -13.701724244498916
      ],
      [
        "floor",
        -13.703809187075874
      ],
      [
        "hasSMul",
        -13.704389692317067
      ],
      [
        "iff",
        -13.704868555550155
      ],
      [
        "reindex",
        -13.706173805406118
      ],
      [
        "mapPair",
        -13.707822977705188
      ],
      [
        "sColimitOfHasCo",
        -13.70911861848094
      ],
      [
        "Preserve",
        -13.70994211829234
      ],
      [
        "UniformEquiv",
        -13.710595981050979
      ],
      [
        "homogeneous",
        -13.711755156690625
      ],
      [
        "egularTopology",
        -13.712969826459382
      ],
      [
        "Shelf",
        -13.713296187759937
      ],
      [
        "otalComplexShape",
        -13.713349813248684
      ],
      [
        "ofList",
        -13.71420553110763
      ],
      [
        "runcation",
        -13.714517611376413
      ],
      [
        "instSup",
        -13.714532006196318
      ],
      [
        "Minimal",
        -13.71533275634243
      ],
      [
        "pow",
        -13.71873052825654
      ],
      [
        "multispan",
        -13.719260243377935
      ],
      [
        "BoundedOrderHom",
        -13.719952870765944
      ],
      [
        "tieltjesFunction",
        -13.720324343444574
      ],
      [
        "Combinat",
        -13.721118907237283
      ],
      [
        "Computable",
        -13.721507149803948
      ],
      [
        "Graph",
        -13.722004427952339
      ],
      [
        "instDecidable",
        -13.722405813623173
      ],
      [
        "toMi",
        -13.7233033866894
      ],
      [
        "hicken",
        -13.724480060003645
      ],
      [
        "ExpChar",
        -13.72781946811262
      ],
      [
        "cept",
        -13.728489804989072
      ],
      [
        "Cylinder",
        -13.729978258608504
      ],
      [
        "NonUnitalStar",
        -13.730896307877458
      ],
      [
        "co",
        -13.731205246273413
      ],
      [
        "icategory",
        -13.731284539355656
      ],
      [
        "ctorId",
        -13.732369272295411
      ],
      [
        "PFun",
        -13.73243372940382
      ],
      [
        "toCo",
        -13.732611612017145
      ],
      [
        "NatIso",
        -13.735991062596291
      ],
      [
        "ĠinstAddC",
        -13.737428430373239
      ],
      [
        "locale",
        -13.739076779584245
      ],
      [
        "Multis",
        -13.739423605388621
      ],
      [
        "normal",
        -13.739686499567537
      ],
      [
        "monomial",
        -13.741675463914724
      ],
      [
        "LeftInverse",
        -13.742089105425428
      ],
      [
        "normalize",
        -13.742242822269017
      ],
      [
        "Site",
        -13.74316269464482
      ],
      [
        "IsMin",
        -13.74341522102764
      ],
      [
        "NonUnitalS",
        -13.74749862545964
      ],
      [
        "ĠAddGroup",
        -13.747852143519133
      ],
      [
        "ingParallelPair",
        -13.748668656230539
      ],
      [
        "Length",
        -13.748787274061348
      ],
      [
        "leftHomology",
        -13.74954856747082
      ],
      [
        "RingSeminorm",
        -13.749764306567956
      ],
      [
        "FaithfulSMul",
        -13.749894940285856
      ],
      [
        "IsAddUnit",
        -13.750106652420712
      ],
      [
        "IsPushout",
        -13.754469479222898
      ],
      [
        "rincipalSeg",
        -13.75465358717596
      ],
      [
        "cartesian",
        -13.754694166837968
      ],
      [
        "rightHomology",
        -13.754810329791026
      ],
      [
        "uliftFunctor",
        -13.754966770503902
      ],
      [
        "instAddAction",
        -13.755357995538102
      ],
      [
        "Ind",
        -13.756494326570706
      ],
      [
        "toAddHom",
        -13.756768697451882
      ],
      [
        "nstLinearOrdered",
        -13.756854203382623
      ],
      [
        "truncGE",
        -13.757886130099838
      ],
      [
        "monMonoidal",
        -13.759395659620791
      ],
      [
        "Congr",
        -13.75947619096642
      ],
      [
        "structuredArrow",
        -13.760638819228241
      ],
      [
        "StructureSheaf",
        -13.761597876167729
      ],
      [
        "eudoMetricSpace",
        -13.762825574788462
      ],
      [
        "regular",
        -13.76387410600361
      ],
      [
        "Incidence",
        -13.764529675222855
      ],
      [
        "ds",
        -13.764867165091507
      ],
      [
        "MulArchimedean",
        -13.765570732544049
      ],
      [
        "quiver",
        -13.765863240744656
      ],
      [
        "categoryF",
        -13.7659284361846
      ],
      [
        "instFintype",
        -13.765963060499349
      ],
      [
        "colim",
        -13.767494696620357
      ],
      [
        "homM",
        -13.769371603435108
      ],
      [
        "tmul",
        -13.769904273823762
      ],
      [
        "Inf",
        -13.770336689584774
      ],
      [
        "oric",
        -13.771011121820598
      ],
      [
        "tile",
        -13.771674629857277
      ],
      [
        "ContinuousMapC",
        -13.773104668191674
      ],
      [
        "PreservesFinite",
        -13.774084584138734
      ],
      [
        "OrderRingHom",
        -13.775775704883968
      ],
      [
        "osPart",
        -13.775983739757358
      ],
      [
        "rderAddMonoidIso",
        -13.776821809553844
      ],
      [
        "RightResolution",
        -13.777865846311276
      ],
      [
        "Lower",
        -13.781205364898822
      ],
      [
        "OneT",
        -13.78167428677898
      ],
      [
        "LeftMono",
        -13.78170057712704
      ],
      [
        "neighborSet",
        -13.782263734648843
      ],
      [
        "congr",
        -13.782912536652905
      ],
      [
        "take",
        -13.783208929726548
      ],
      [
        "complete",
        -13.783885481035625
      ],
      [
        "precompose",
        -13.784212240552453
      ],
      [
        "Subcategory",
        -13.785512862182792
      ],
      [
        "SupBotHom",
        -13.78626259616642
      ],
      [
        "FullyFaithful",
        -13.788168518401362
      ],
      [
        "OpNorm",
        -13.788755551536507
      ],
      [
        "hartA",
        -13.79131879411265
      ],
      [
        "toCommGroup",
        -13.791367998220277
      ],
      [
        "mappingCone",
        -13.791453344901885
      ],
      [
        "IsOrderedAdd",
        -13.79274071182627
      ],
      [
        "counitIso",
        -13.793795368558836
      ],
      [
        "ightKanExtension",
        -13.79550052635937
      ],
      [
        "part",
        -13.795521793558867
      ],
      [
        "topological",
        -13.796520434941158
      ],
      [
        "intr",
        -13.79654899650525
      ],
      [
        "HoCat",
        -13.80061383284464
      ],
      [
        "shortComplex",
        -13.802193505495499
      ],
      [
        "Pr",
        -13.802389927883727
      ],
      [
        "OrthogonalR",
        -13.803262183386366
      ],
      [
        "arallelFamily",
        -13.803789699589647
      ],
      [
        "distribMulAction",
        -13.806435786623297
      ],
      [
        "nstCategoryLight",
        -13.810871424367935
      ],
      [
        "toAddMonoidHom",
        -13.811764036869352
      ],
      [
        "OfDecidableEq",
        -13.812025950914041
      ],
      [
        "sBinaryBiproduct",
        -13.813399332570283
      ],
      [
        "ĠPreord",
        -13.814079236635827
      ],
      [
        "bit",
        -13.816242110270426
      ],
      [
        "RightInverse",
        -13.816945282189065
      ],
      [
        "ietoris",
        -13.817498950327304
      ],
      [
        "FiniteGrp",
        -13.817588624071698
      ],
      [
        "DFA",
        -13.820213349418735
      ],
      [
        "Smooth",
        -13.821660621465476
      ],
      [
        "asLeftHomology",
        -13.821924175103726
      ],
      [
        "instFunLikeNat",
        -13.822287155627972
      ],
      [
        "ns",
        -13.823056303071205
      ],
      [
        "zpow",
        -13.823881474694922
      ],
      [
        "next",
        -13.824844868513296
      ],
      [
        "Sp",
        -13.825551447573131
      ],
      [
        "KanExtension",
        -13.826211639207575
      ],
      [
        "ĠDecidable",
        -13.828054403276056
      ],
      [
        "Compact",
        -13.828551807876188
      ],
      [
        "ĠinstStarRing",
        -13.828723535599929
      ],
      [
        "obabilityMeasure",
        -13.829787852580903
      ],
      [
        "Shift",
        -13.830892357628366
      ],
      [
        "Constructi",
        -13.830965661662143
      ],
      [
        "Blank",
        -13.834399461199641
      ],
      [
        "getElem",
        -13.834426296146074
      ],
      [
        "instAddSemigroup",
        -13.835522459340135
      ],
      [
        "instVAdd",
        -13.83654838924198
      ],
      [
        "Dart",
        -13.83780791448406
      ],
      [
        "asFiniteLimits",
        -13.839352688933584
      ],
      [
        "fundamental",
        -13.841673444455395
      ],
      [
        "ushoutCocone",
        -13.842178496719995
      ],
      [
        "instQuiver",
        -13.84329591930629
      ],
      [
        "ula",
        -13.844018806053164
      ],
      [
        "Magma",
        -13.844197784813616
      ],
      [
        "toNNReal",
        -13.844549422623722
      ],
      [
        "IsPullback",
        -13.84506030611394
      ],
      [
        "tBot",
        -13.845563428327761
      ],
      [
        "Pos",
        -13.84615852007147
      ],
      [
        "Symbol",
        -13.846793394223326
      ],
      [
        "IsAdjoinRoot",
        -13.848023723380464
      ],
      [
        "OpenNhds",
        -13.849197000105981
      ],
      [
        "repr",
        -13.849453548233129
      ],
      [
        "equivalence",
        -13.849894781318053
      ],
      [
        "Lax",
        -13.850005584917811
      ],
      [
        "OfShape",
        -13.850670380716094
      ],
      [
        "erV",
        -13.854525687586925
      ],
      [
        "normedAddGroup",
        -13.855255355122818
      ],
      [
        "cocone",
        -13.856140478404088
      ],
      [
        "realSpace",
        -13.859292595743877
      ],
      [
        "oBoolAlg",
        -13.861813332718786
      ],
      [
        "PosSMul",
        -13.862353981403595
      ],
      [
        "mapTriangle",
        -13.86331707777077
      ],
      [
        "epresentableBy",
        -13.86359237405432
      ],
      [
        "ddOrderOf",
        -13.863831007244507
      ],
      [
        "ability",
        -13.865192550146437
      ],
      [
        "Content",
        -13.866332612793107
      ],
      [
        "IsSheaf",
        -13.867451971989883
      ],
      [
        "ColimitsOfSize",
        -13.868144738144359
      ],
      [
        "NonarchAddGroup",
        -13.868289315309704
      ],
      [
        "ntry",
        -13.870415403720681
      ],
      [
        "FiniteType",
        -13.870876233978855
      ],
      [
        "Cohomology",
        -13.871231120112402
      ],
      [
        "StandardBorel",
        -13.87183785003118
      ],
      [
        "toGrp",
        -13.875115346319225
      ],
      [
        "nseparable",
        -13.876091900920722
      ],
      [
        "extendScalars",
        -13.879377890493407
      ],
      [
        "MapF",
        -13.881537633718935
      ],
      [
        "Besicovitch",
        -13.882027355450766
      ],
      [
        "IsSFiniteKernel",
        -13.882099804602486
      ],
      [
        "IsCompl",
        -13.882598025514753
      ],
      [
        "Law",
        -13.882711589759742
      ],
      [
        "Recur",
        -13.883850086341214
      ],
      [
        "Covering",
        -13.883864299614592
      ],
      [
        "rence",
        -13.884607129384758
      ],
      [
        "asRightHomology",
        -13.885328621174356
      ],
      [
        "alizedGCDMonoid",
        -13.886139883083459
      ],
      [
        "Splits",
        -13.88680785279114
      ],
      [
        "gen",
        -13.887905248952183
      ],
      [
        "toAlgHom",
        -13.88975950287261
      ],
      [
        "Preconnected",
        -13.891506257123499
      ],
      [
        "old",
        -13.89241581336141
      ],
      [
        "Arr",
        -13.8930869903788
      ],
      [
        "RightAction",
        -13.893418858123646
      ],
      [
        "eq",
        -13.89370352306673
      ],
      [
        "IsDirected",
        -13.894995178068811
      ],
      [
        "IsClosedUnder",
        -13.89510111782116
      ],
      [
        "Gamma",
        -13.895708552380867
      ],
      [
        "comul",
        -13.898362513288355
      ],
      [
        "Inverse",
        -13.89874552901687
      ],
      [
        "utation",
        -13.89887515438596
      ],
      [
        "sInfHom",
        -13.899199035794368
      ],
      [
        "umDen",
        -13.899649919761178
      ],
      [
        "ĠinstL",
        -13.900199220116553
      ],
      [
        "AnalyticOn",
        -13.900204836571966
      ],
      [
        "Btw",
        -13.900299315521806
      ],
      [
        "edge",
        -13.90036220151425
      ],
      [
        "hasShift",
        -13.901837376498621
      ],
      [
        "AddMagma",
        -13.902528853426807
      ],
      [
        "FrameHom",
        -13.902535501364522
      ],
      [
        "Locus",
        -13.903001365384682
      ],
      [
        "GaloisCo",
        -13.90386008491458
      ],
      [
        "ĠPrim",
        -13.904295124307588
      ],
      [
        "instIs",
        -13.9050080832123
      ],
      [
        "apply",
        -13.905141254066299
      ],
      [
        "Dilation",
        -13.905422040681549
      ],
      [
        "PosMul",
        -13.90551470451096
      ],
      [
        "amming",
        -13.905988668636903
      ],
      [
        "Independent",
        -13.9067845366742
      ],
      [
        "Same",
        -13.909198055616292
      ],
      [
        "mono",
        -13.910300978346955
      ],
      [
        "IsCofiltered",
        -13.910785058066057
      ],
      [
        "orbit",
        -13.911581189156955
      ],
      [
        "isIso",
        -13.913056037452593
      ],
      [
        "baseChange",
        -13.91332844289985
      ],
      [
        "Dyck",
        -13.913514529205797
      ],
      [
        "externalProduct",
        -13.91360958318132
      ],
      [
        "distinguished",
        -13.913836750336348
      ],
      [
        "fDegreewiseSplit",
        -13.915801959338246
      ],
      [
        "omega",
        -13.915945604831883
      ],
      [
        "CStarRing",
        -13.916515880232492
      ],
      [
        "all",
        -13.916565028085289
      ],
      [
        "âĤĹ",
        -13.91714842652836
      ],
      [
        "Support",
        -13.917216218752923
      ],
      [
        "symmetrify",
        -13.917473300104668
      ],
      [
        "Ordering",
        -13.918711271096342
      ],
      [
        "HasPushout",
        -13.920205211568137
      ],
      [
        "ContDiffBump",
        -13.921205601383058
      ],
      [
        "EssentiallySmall",
        -13.921306115651815
      ],
      [
        "edgeSet",
        -13.921822407381477
      ],
      [
        "Integra",
        -13.922207643601794
      ],
      [
        "Repr",
        -13.922210407952148
      ],
      [
        "monoidWithZero",
        -13.922470393708986
      ],
      [
        "ĠNormed",
        -13.924328677499872
      ],
      [
        "roots",
        -13.924373061526236
      ],
      [
        "withDensity",
        -13.926653086270491
      ],
      [
        "OverClass",
        -13.926697384040056
      ],
      [
        "CLM",
        -13.927338566171983
      ],
      [
        "mulAction",
        -13.928069503618957
      ],
      [
        "IsSeparable",
        -13.92935393752105
      ],
      [
        "matrix",
        -13.929767425518182
      ],
      [
        "liftFromUnder",
        -13.93206421291319
      ],
      [
        "Nucleus",
        -13.93208330874415
      ],
      [
        "mapBifunctor",
        -13.933626728795874
      ],
      [
        "IsFiniteKernel",
        -13.934714797898799
      ],
      [
        "liftFromOver",
        -13.934767039806841
      ],
      [
        "Projectiv",
        -13.93737196222059
      ],
      [
        "LightCond",
        -13.937582812521375
      ],
      [
        "DecidableLE",
        -13.938347895242451
      ],
      [
        "ĠAdd",
        -13.938841375119864
      ],
      [
        "WithLower",
        -13.939078228629498
      ],
      [
        "Fundamental",
        -13.9402195777833
      ],
      [
        "AssocQuotient",
        -13.940272847639434
      ],
      [
        "Above",
        -13.941055776623974
      ],
      [
        "ZeroLE",
        -13.941271523284104
      ],
      [
        "ContinuousConst",
        -13.941557848417679
      ],
      [
        "tisymmetrization",
        -13.94361924441288
      ],
      [
        "instGroupoid",
        -13.944082323303588
      ],
      [
        "concreteCategory",
        -13.94456614177632
      ],
      [
        "Gal",
        -13.945588290304375
      ],
      [
        "rootSpan",
        -13.945796521259831
      ],
      [
        "polynomial",
        -13.946813709111794
      ],
      [
        "isScalarTower",
        -13.947340394706405
      ],
      [
        "ment",
        -13.947482486706527
      ],
      [
        "EffectiveEpi",
        -13.9475349528621
      ],
      [
        "IsMul",
        -13.948620435973838
      ],
      [
        "Fr",
        -13.948905292719278
      ],
      [
        "set",
        -13.949000513866554
      ],
      [
        "IsSimple",
        -13.949614506755463
      ],
      [
        "Normalization",
        -13.951083846803126
      ],
      [
        "nonUnital",
        -13.951775398430753
      ],
      [
        "cocycle",
        -13.953028761185283
      ],
      [
        "instBounded",
        -13.953442960982915
      ],
      [
        "groupCohomology",
        -13.953875933292442
      ],
      [
        "LocallyUniformly",
        -13.955865031750758
      ],
      [
        "sFiniteColimits",
        -13.956310401270525
      ],
      [
        "belianization",
        -13.957261523656253
      ],
      [
        "ĠBdd",
        -13.957629264739904
      ],
      [
        "IsComplement",
        -13.959578365764468
      ],
      [
        "QP",
        -13.960921621010833
      ],
      [
        "DoubleC",
        -13.961768658772323
      ],
      [
        "SmoothBump",
        -13.962193500092352
      ],
      [
        "Diff",
        -13.963185935096732
      ],
      [
        "it",
        -13.964492908886537
      ],
      [
        "oGrothendieck",
        -13.964606261553111
      ],
      [
        "ntinuousFunction",
        -13.964875055421581
      ],
      [
        "compactOpe",
        -13.965125331071025
      ],
      [
        "AddContent",
        -13.968215376225137
      ],
      [
        "Val",
        -13.968389408874195
      ],
      [
        "toOpposite",
        -13.968739814292011
      ],
      [
        "Conj",
        -13.97297074251789
      ],
      [
        "edBy",
        -13.974158614434039
      ],
      [
        "ceil",
        -13.975082400901602
      ],
      [
        "Ball",
        -13.975280757075542
      ],
      [
        "AddCommMonCat",
        -13.975633815732987
      ],
      [
        "toProd",
        -13.978729416255401
      ],
      [
        "aseSet",
        -13.979966592878686
      ],
      [
        "BotHom",
        -13.980739590229252
      ],
      [
        "ExistsAdd",
        -13.981127364841551
      ],
      [
        "HasProduct",
        -13.98113317625792
      ],
      [
        "GetElem",
        -13.9814132628334
      ],
      [
        "Elementary",
        -13.981643315771262
      ],
      [
        "Config",
        -13.981850636356457
      ],
      [
        "Place",
        -13.982651356226725
      ],
      [
        "agin",
        -13.983310185105912
      ],
      [
        "IsCancelMul",
        -13.983408087422895
      ],
      [
        "Coeff",
        -13.984625779302885
      ],
      [
        "Jordan",
        -13.98470337349867
      ],
      [
        "FundamentalGroup",
        -13.985773783785309
      ],
      [
        "PosMulReflectL",
        -13.987260074535971
      ],
      [
        "ĠComputa",
        -13.987378203586374
      ],
      [
        "Hopf",
        -13.98825216255874
      ],
      [
        "hasPullback",
        -13.989467901602167
      ],
      [
        "widePullback",
        -13.98973902878644
      ],
      [
        "HasCoproduct",
        -13.989881497750968
      ],
      [
        "Iterate",
        -13.990657756322074
      ],
      [
        "derivative",
        -13.991510534660346
      ],
      [
        "CanonicallyO",
        -13.992331352784719
      ],
      [
        "zsmul",
        -13.992760039974282
      ],
      [
        "TopHom",
        -13.993104307780587
      ],
      [
        "FiniteAddGrp",
        -13.993234125233961
      ],
      [
        "ContDiffWithinAt",
        -13.993296653211635
      ],
      [
        "lims",
        -13.993730504571237
      ],
      [
        "toSubring",
        -13.994452053361783
      ],
      [
        "PseudoMetrizable",
        -13.996852649880747
      ],
      [
        "ĠHeyt",
        -13.997073905037546
      ],
      [
        "limitCone",
        -13.997167979956657
      ],
      [
        "subscheme",
        -13.999031013482476
      ],
      [
        "erivWithin",
        -13.999485632688387
      ],
      [
        "parts",
        -13.999787872660889
      ],
      [
        "ialgebra",
        -13.999825628035548
      ],
      [
        "structureSheaf",
        -14.001976309131933
      ],
      [
        "lSupport",
        -14.0031539682453
      ],
      [
        "total",
        -14.003838405393825
      ],
      [
        "Envel",
        -14.004590324428166
      ],
      [
        "homEquiv",
        -14.005597467673304
      ],
      [
        "eredFinpartition",
        -14.006915732392496
      ],
      [
        "ValuationRing",
        -14.00692217147073
      ],
      [
        "transpose",
        -14.008515446729895
      ],
      [
        "mapObj",
        -14.008884425409422
      ],
      [
        "equent",
        -14.008934444349741
      ],
      [
        "Antivary",
        -14.010620347438994
      ],
      [
        "omotopyCofiber",
        -14.01072966270567
      ],
      [
        "IsLeftCancel",
        -14.010823066467328
      ],
      [
        "rev",
        -14.012157161119863
      ],
      [
        "ĠNorm",
        -14.015618241752822
      ],
      [
        "State",
        -14.016249284565784
      ],
      [
        "Ca",
        -14.016259038435246
      ],
      [
        "IsGalois",
        -14.016347024411585
      ],
      [
        "form",
        -14.01703049635353
      ],
      [
        "injective",
        -14.017703241159346
      ],
      [
        "simple",
        -14.017806852763746
      ],
      [
        "Formally",
        -14.01841821284233
      ],
      [
        "cases",
        -14.019400974108798
      ],
      [
        "StrictAnti",
        -14.019433238967824
      ],
      [
        "topology",
        -14.021874628963152
      ],
      [
        "essImage",
        -14.022834904895142
      ],
      [
        "Scalar",
        -14.023442899300868
      ],
      [
        "}))",
        -14.023974834632295
      ],
      [
        "clideanHalfSpace",
        -14.024414675568506
      ],
      [
        "Traversable",
        -14.024855881155975
      ],
      [
        "ightCondSet",
        -14.025355565810907
      ],
      [
        "sConnected",
        -14.025819928400432
      ],
      [
        "mapRange",
        -14.02624860302772
      ],
      [
        "size",
        -14.02749052322924
      ],
      [
        "sSupHom",
        -14.027709549417153
      ],
      [
        "toAddLeftCancel",
        -14.028819480733741
      ],
      [
        "HasImages",
        -14.029545153226913
      ],
      [
        "mmMonoidWithZero",
        -14.031451885321928
      ],
      [
        "lipschitz",
        -14.031750535354622
      ],
      [
        ")))))))]",
        -14.032495424932284
      ],
      [
        "AffineM",
        -14.03270427975576
      ],
      [
        "BinaryFan",
        -14.034204906185675
      ],
      [
        "IsMonoidal",
        -14.034544942154692
      ],
      [
        "Bind",
        -14.036397403780335
      ],
      [
        "NullMeasurableS",
        -14.040416979154482
      ],
      [
        "OfUnity",
        -14.04071195783936
      ],
      [
        "Multipliable",
        -14.04182145208036
      ],
      [
        "post",
        -14.042409106927913
      ],
      [
        "PointedCon",
        -14.043100317194707
      ],
      [
        "Level",
        -14.043268641727856
      ],
      [
        "linear",
        -14.04437282846214
      ],
      [
        "HasKernel",
        -14.04493054843347
      ],
      [
        "fullMonoidal",
        -14.046504457530908
      ],
      [
        "Semiconj",
        -14.046688720720194
      ],
      [
        "eSpectrum",
        -14.051524152817809
      ],
      [
        "FamilyOfElements",
        -14.053765094923316
      ],
      [
        "iteratedDeriv",
        -14.054356689307838
      ],
      [
        "Ha",
        -14.055425134652227
      ],
      [
        "sheafify",
        -14.05544486420022
      ],
      [
        "ping",
        -14.059642214749719
      ],
      [
        "FinT",
        -14.062286824255462
      ],
      [
        "SheafCondition",
        -14.062598093765175
      ],
      [
        "instHasHomology",
        -14.064773367960935
      ],
      [
        "SemilinearMap",
        -14.064799315179506
      ],
      [
        "Height",
        -14.06775935868221
      ],
      [
        "GroupReal",
        -14.0694255399411
      ],
      [
        "instCategoryCo",
        -14.06947092232757
      ],
      [
        "nhdsSet",
        -14.07131356559609
      ],
      [
        "coequalizer",
        -14.074622007759576
      ],
      [
        "ĠStar",
        -14.07539205684949
      ],
      [
        "toFilter",
        -14.075873756438899
      ],
      [
        "BooleanRing",
        -14.076260951125981
      ],
      [
        "padicNorm",
        -14.077049160188938
      ],
      [
        "trace",
        -14.079343205040406
      ],
      [
        "IsDiscrete",
        -14.079901068062906
      ],
      [
        "AsSmall",
        -14.081866055617837
      ],
      [
        "OpenSubsets",
        -14.083268357473937
      ],
      [
        "radical",
        -14.084037076276587
      ],
      [
        "Weight",
        -14.084313369388745
      ],
      [
        "cfc",
        -14.084702482520367
      ],
      [
        "isation",
        -14.086553900083217
      ],
      [
        "etrizableSpace",
        -14.089389163416188
      ],
      [
        "glued",
        -14.089658151295886
      ],
      [
        "step",
        -14.089979005933955
      ],
      [
        "Final",
        -14.091787648199563
      ],
      [
        "FG",
        -14.093168430679206
      ],
      [
        "oAddCommMonoid",
        -14.093809613717074
      ],
      [
        "tensorRight",
        -14.093939471139326
      ],
      [
        "_)))",
        -14.094435920253256
      ],
      [
        "fderiv",
        -14.094837252351748
      ],
      [
        "CompleteLat",
        -14.094997215521584
      ],
      [
        "FDerivAt",
        -14.095486733984398
      ],
      [
        "mapCocone",
        -14.09616458160016
      ],
      [
        "fourier",
        -14.09903129696234
      ],
      [
        "TwoP",
        -14.100342616155514
      ],
      [
        "HasDeriv",
        -14.100585016510603
      ],
      [
        "easurePreserving",
        -14.1008199926425
      ],
      [
        "rel",
        -14.10147092150985
      ],
      [
        "Re",
        -14.101749351772185
      ],
      [
        "Til",
        -14.101766869185646
      ],
      [
        "IsCentral",
        -14.102346574555305
      ],
      [
        "prev",
        -14.103432715054797
      ],
      [
        "Light",
        -14.104410627870662
      ],
      [
        "instRatCast",
        -14.106402033913541
      ],
      [
        "Transversal",
        -14.106718990692706
      ],
      [
        "lower",
        -14.107567497354573
      ],
      [
        "ĠMv",
        -14.108126016731683
      ],
      [
        "[_",
        -14.108258863006267
      ],
      [
        "HasFDerivAt",
        -14.10871486658779
      ],
      [
        "HNot",
        -14.109292710132472
      ],
      [
        "ĠMul",
        -14.111562614067198
      ],
      [
        "IsUltra",
        -14.111934849471794
      ],
      [
        "addLeft",
        -14.113396803028904
      ],
      [
        "instIsLocalRing",
        -14.113903813159279
      ],
      [
        "wf",
        -14.114519891019778
      ],
      [
        "?.",
        -14.116900296916103
      ],
      [
        "Holor",
        -14.117201654093455
      ],
      [
        "LinearIndep",
        -14.118367637488909
      ],
      [
        "RespectsIso",
        -14.11843015910952
      ],
      [
        "gSpace",
        -14.118451705448459
      ],
      [
        "FloorSemiring",
        -14.120811888296352
      ],
      [
        "asRightDual",
        -14.12217266021635
      ],
      [
        "ProperCon",
        -14.122227375912615
      ],
      [
        "Reflects",
        -14.122342764752396
      ],
      [
        "StrongEpiMono",
        -14.123948968516899
      ],
      [
        "RightFraction",
        -14.124952975237813
      ],
      [
        "Associated",
        -14.125350003502048
      ],
      [
        "IsEquivalence",
        -14.126750998788296
      ],
      [
        "PEquiv",
        -14.127045403542981
      ],
      [
        "covering",
        -14.128286677796655
      ],
      [
        "LeftAdjoint",
        -14.129060003184302
      ],
      [
        "Uni",
        -14.129647976920344
      ],
      [
        "LocallyCompact",
        -14.129892363896632
      ],
      [
        "asLeftDual",
        -14.129998192709365
      ],
      [
        "mapHom",
        -14.133494266973704
      ],
      [
        "iLocalization",
        -14.134945640978
      ],
      [
        "sinh",
        -14.135126734010107
      ],
      [
        "pectralObject",
        -14.135368657240063
      ],
      [
        "as",
        -14.135588847301118
      ],
      [
        "mapDomain",
        -14.140053782654515
      ],
      [
        "ddMonoidAlgebra",
        -14.140552818630248
      ],
      [
        "nrichedFunctor",
        -14.141227838128263
      ],
      [
        "Construct",
        -14.141554934604077
      ],
      [
        "WithUpperSet",
        -14.14207741322857
      ],
      [
        "sImage",
        -14.142594433640554
      ],
      [
        "borel",
        -14.143548834025523
      ],
      [
        "primeFactors",
        -14.144815256600287
      ],
      [
        "sTerminal",
        -14.145199293254453
      ],
      [
        "ofD",
        -14.145577731003701
      ],
      [
        "áµ",
        -14.146233431335414
      ],
      [
        "Chosen",
        -14.14757665330164
      ],
      [
        "Strat",
        -14.148451558705432
      ],
      [
        "ddDi",
        -14.14855454007116
      ],
      [
        "isEquivalen",
        -14.151307597074116
      ],
      [
        "mkHom",
        -14.152342441953694
      ],
      [
        "toGradedObject",
        -14.152510748869883
      ],
      [
        "cond",
        -14.152616944783613
      ],
      [
        "sWellOrder",
        -14.153585445403447
      ],
      [
        "StarAlgebra",
        -14.153957741297827
      ],
      [
        "IsIsometric",
        -14.15490518559307
      ],
      [
        "zz",
        -14.154946813696007
      ],
      [
        "instSMulOf",
        -14.158110744455826
      ],
      [
        "LSeries",
        -14.158870204672901
      ],
      [
        "homOfL",
        -14.160785453905918
      ],
      [
        "rnDeriv",
        -14.161646099720063
      ],
      [
        "rotate",
        -14.162000354011246
      ],
      [
        "opFunctor",
        -14.162642923102924
      ],
      [
        "IsZero",
        -14.163285088172081
      ],
      [
        "sheafToPresheaf",
        -14.165039243741322
      ],
      [
        "sLocallyDirected",
        -14.165602897113605
      ],
      [
        "toIn",
        -14.166511071429253
      ],
      [
        "Orthogonal",
        -14.166572850442247
      ],
      [
        "onoidWithZeroHom",
        -14.166627094057018
      ],
      [
        "ewise",
        -14.167097941001277
      ],
      [
        "replicate",
        -14.168459280807847
      ],
      [
        "toBdd",
        -14.16894292384346
      ],
      [
        "mapCone",
        -14.169002053017845
      ],
      [
        "instAddCommM",
        -14.169894410090347
      ],
      [
        "delete",
        -14.170122643891826
      ],
      [
        "decidableMem",
        -14.170214436167072
      ],
      [
        "mpositionOfShape",
        -14.170315527604997
      ],
      [
        "ofL",
        -14.172818797335168
      ],
      [
        "adj",
        -14.173757390420217
      ],
      [
        "toOneHom",
        -14.174990661259724
      ],
      [
        "limi",
        -14.17541421796303
      ],
      [
        "ClassGroup",
        -14.176576159339117
      ],
      [
        "HurwitzZeta",
        -14.17679440707471
      ],
      [
        "Che",
        -14.178107684415105
      ],
      [
        "IsTwoSided",
        -14.178349421544581
      ],
      [
        "moveLeft",
        -14.178856594973055
      ],
      [
        "HasLeftHomology",
        -14.17915219367711
      ],
      [
        "multiplic",
        -14.180150458884585
      ],
      [
        "WellFounded",
        -14.180430844552857
      ],
      [
        "oLightProfinite",
        -14.18046311626091
      ],
      [
        "Preserving",
        -14.180681948309978
      ],
      [
        "qZero",
        -14.180745812586348
      ],
      [
        "riangleMorphism",
        -14.182195056708972
      ],
      [
        "IsAddHaarMeasure",
        -14.182261998624606
      ],
      [
        "Element",
        -14.182672783759905
      ],
      [
        "IsPre",
        -14.184601758328872
      ],
      [
        "DiagramOf",
        -14.185132511945287
      ],
      [
        "Basic",
        -14.186145014240871
      ],
      [
        "residueField",
        -14.186370804965916
      ],
      [
        "Ïī",
        -14.186829739971927
      ],
      [
        "functorEquiv",
        -14.18757580993724
      ],
      [
        "ingTime",
        -14.189309856108954
      ],
      [
        "StarRingEquiv",
        -14.189754836704484
      ],
      [
        "TrivS",
        -14.192062269895711
      ],
      [
        "reflector",
        -14.192756653736147
      ],
      [
        "inducedStructure",
        -14.192760352612739
      ],
      [
        "IsAffine",
        -14.19513182489894
      ],
      [
        "nstSMulCommClass",
        -14.196077886242897
      ],
      [
        "Retract",
        -14.196225486686032
      ],
      [
        "coroot",
        -14.196283943403298
      ],
      [
        "Three",
        -14.196368890706895
      ],
      [
        "Pred",
        -14.1967262434542
      ],
      [
        "las",
        -14.196732941547381
      ],
      [
        "sOpenMap",
        -14.197068271256494
      ],
      [
        "IsLower",
        -14.19735441169561
      ],
      [
        "Constructible",
        -14.197425940347042
      ],
      [
        "IsG",
        -14.197558070084423
      ],
      [
        "Export",
        -14.199678309613796
      ],
      [
        "ĠNo",
        -14.200155990911878
      ],
      [
        "decL",
        -14.203346025754541
      ],
      [
        "ĠFree",
        -14.20335921175585
      ],
      [
        "ĠFinB",
        -14.206576440057347
      ],
      [
        "finiteCo",
        -14.207486972894326
      ],
      [
        "instIsPreorder",
        -14.209057995191124
      ],
      [
        "Stone",
        -14.210475811258695
      ],
      [
        "ĠinstLinearOrder",
        -14.211244513909431
      ],
      [
        "SemiHomClass",
        -14.211973504884488
      ],
      [
        "Connect",
        -14.21268848898894
      ],
      [
        "ĠWellOrder",
        -14.213016002923208
      ],
      [
        "Infinit",
        -14.216267759093093
      ],
      [
        "HasRightHomology",
        -14.21788673133571
      ],
      [
        "ection",
        -14.21813790598965
      ],
      [
        "toI",
        -14.218937628242116
      ],
      [
        "instHasS",
        -14.219523703820016
      ],
      [
        "Lifts",
        -14.220324326090125
      ],
      [
        "Definable",
        -14.221070065962962
      ],
      [
        "ational",
        -14.221334516128
      ],
      [
        "instHasColimit",
        -14.222585496853522
      ],
      [
        "HasTerminal",
        -14.224443340153925
      ],
      [
        "decidableEq",
        -14.225400368275128
      ],
      [
        "IsBase",
        -14.22692465842888
      ],
      [
        "GromovHausdorff",
        -14.22830238394856
      ],
      [
        "IsHom",
        -14.2287424209234
      ],
      [
        "IsContinuous",
        -14.22879975537812
      ],
      [
        "For",
        -14.230231954923784
      ],
      [
        "ThreeG",
        -14.231859711974884
      ],
      [
        "IsWellFounded",
        -14.23379537604933
      ],
      [
        "oend",
        -14.233982321455981
      ],
      [
        "DegLex",
        -14.23573524052518
      ],
      [
        "AdicCompl",
        -14.23585112461381
      ],
      [
        "Extrem",
        -14.237766664321072
      ],
      [
        "MvFunctor",
        -14.238607829902264
      ],
      [
        "IsSt",
        -14.239019916939537
      ],
      [
        "IsCycle",
        -14.239985573720102
      ],
      [
        "WeakF",
        -14.24070568733337
      ],
      [
        "OreSet",
        -14.241803324649402
      ],
      [
        "ancelCommMonoid",
        -14.242519401133222
      ],
      [
        "instGetElemNatLt",
        -14.243026014169047
      ],
      [
        "AddLeft",
        -14.243295725549919
      ],
      [
        "ha",
        -14.244316971353557
      ],
      [
        "JordanHolder",
        -14.246618956665786
      ],
      [
        "DirectedSystem",
        -14.246619459375838
      ],
      [
        "IsEmbedding",
        -14.247308089511359
      ],
      [
        "toEmbedding",
        -14.247899931495077
      ],
      [
        "okernelCofork",
        -14.249375311276067
      ],
      [
        "frobenius",
        -14.250162040931286
      ],
      [
        "tractionMonoid",
        -14.250352853863063
      ],
      [
        "enselyOrdered",
        -14.253002497307065
      ],
      [
        "toSquare",
        -14.253253319290852
      ],
      [
        "split",
        -14.25339012474728
      ],
      [
        "AddMe",
        -14.255881477944584
      ],
      [
        "HasCardinal",
        -14.256779523946978
      ],
      [
        "CarrierV",
        -14.256960905704181
      ],
      [
        "OpenCover",
        -14.25765815031058
      ],
      [
        "OppositeModule",
        -14.257677634726893
      ],
      [
        "condExp",
        -14.257778182948872
      ],
      [
        "Multifork",
        -14.257789166038451
      ],
      [
        "embedding",
        -14.258059648912157
      ],
      [
        "postcompose",
        -14.258191645081876
      ],
      [
        "mapIso",
        -14.258212160804767
      ],
      [
        "oidWithOne",
        -14.25846470822512
      ],
      [
        "sets",
        -14.258703199095454
      ],
      [
        "HeytingHom",
        -14.259156907225856
      ],
      [
        "micontinuous",
        -14.259592431225906
      ],
      [
        "HasInitial",
        -14.261375000800683
      ],
      [
        "arg",
        -14.261988698123501
      ],
      [
        "homologyFunctor",
        -14.26340458996599
      ],
      [
        "bifunctor",
        -14.264212662657744
      ],
      [
        "infs",
        -14.264433514992735
      ],
      [
        "TorsionFree",
        -14.264839552812335
      ],
      [
        "transform",
        -14.265062681720433
      ],
      [
        "castLE",
        -14.26513749262322
      ],
      [
        "imp",
        -14.26542304314195
      ],
      [
        "veOn",
        -14.265673259597408
      ],
      [
        "IsRel",
        -14.266558881440993
      ],
      [
        "Primes",
        -14.267292465513135
      ],
      [
        "Ess",
        -14.26742556089662
      ],
      [
        "smulS",
        -14.267651328258129
      ],
      [
        "IsFraction",
        -14.2677791079197
      ],
      [
        "basis",
        -14.268309358341417
      ],
      [
        "IsTrans",
        -14.26865348901573
      ],
      [
        "IsOfFin",
        -14.268808039322035
      ],
      [
        "sym",
        -14.269481058788905
      ],
      [
        "AddSubgroupOf",
        -14.27054666185905
      ],
      [
        "FinEn",
        -14.270844025414174
      ],
      [
        "instProd",
        -14.271254153701406
      ],
      [
        "ĠinstP",
        -14.271289710098134
      ],
      [
        "Unitary",
        -14.272456742496338
      ],
      [
        "Ġ:",
        -14.272531399571395
      ],
      [
        "IsS",
        -14.27294771811307
      ],
      [
        "thicken",
        -14.274595987078504
      ],
      [
        "IsSymm",
        -14.275388247899325
      ],
      [
        "normalizer",
        -14.275782632992104
      ],
      [
        "HasCompact",
        -14.27665445877401
      ],
      [
        "Contains",
        -14.276696405900285
      ],
      [
        "LineDeriv",
        -14.277845216759555
      ],
      [
        "Dyn",
        -14.27826645041366
      ],
      [
        "isoMk",
        -14.280802889800349
      ],
      [
        "mation",
        -14.28094639102589
      ],
      [
        "OfCon",
        -14.282660064296968
      ],
      [
        "padicVal",
        -14.282894432593167
      ],
      [
        "ĠPFun",
        -14.284218833671055
      ],
      [
        "HasProd",
        -14.284530531927674
      ],
      [
        "Ġ_))]",
        -14.285318443376678
      ],
      [
        "Commutator",
        -14.28565283648248
      ],
      [
        "IntegrallyClosed",
        -14.287448120404365
      ],
      [
        "Antisymm",
        -14.28770148514275
      ],
      [
        "toGlue",
[...]
