{
  "version": "1.0",
  "truncation": null,
  "padding": null,
  "added_tokens": [
    {
      "id": 0,
      "content": "<pad>",
      "single_word": false,
      "lstrip": false,
      "rstrip": false,
      "normalized": false,
      "special": true
    },
    {
      "id": 1,
      "content": "<mask>",
      "single_word": false,
      "lstrip": false,
      "rstrip": false,
      "normalized": false,
      "special": true
    },
    {
      "id": 2,
      "content": "<s>",
      "single_word": false,
      "lstrip": false,
      "rstrip": false,
      "normalized": false,
      "special": true
    },
    {
      "id": 3,
      "content": "</s>",
      "single_word": false,
      "lstrip": false,
      "rstrip": false,
      "normalized": false,
      "special": true
    }
  ],
  "normalizer": null,
  "pre_tokenizer": {
    "type": "Sequence",
    "pretokenizers": [
      {
        "type": "Split",
        "pattern": {
          "Regex": "\\."
        },
        "behavior": "Isolated",
        "invert": false
      },
      {
        "type": "Split",
        "pattern": {
          "Regex": "[A-Za-z_][A-Za-z0-9_']*|[0-9]+|\\s+|."
        },
        "behavior": "Isolated",
        "invert": false
      },
      {
        "type": "ByteLevel",
        "add_prefix_space": false,
        "trim_offsets": true,
        "use_regex": false
      }
    ]
  },
  "post_processor": null,
  "decoder": {
    "type": "ByteLevel",
    "add_prefix_space": true,
    "trim_offsets": true,
    "use_regex": true
  },
  "model": {
    "type": "Unigram",
    "unk_id": null,
    "vocab": [
      [
        "<pad>",
        0.0
      ],
      [
        "<mask>",
        0.0
      ],
      [
        "<s>",
        0.0
      ],
      [
        "</s>",
        0.0
      ],
      [
        "_",
        -1.6924033439261095
      ],
      [
        "Ġ",
        -1.7747733309002989
      ],
      [
        ".",
        -2.5345015848606813
      ],
      [
        "u",
        -2.8468216965473445
      ],
      [
        "(",
        -3.1605425054221534
      ],
      [
        ")",
        -3.1605425054221534
      ],
      [
        "{",
        -3.176507788128319
      ],
      [
        "}",
        -3.176507788128319
      ],
      [
        "1",
        -3.238288095557266
      ],
      [
        "@",
        -3.3674347606910366
      ],
      [
        "0",
        -3.3966699805628977
      ],
      [
        ",",
        -3.9488093599404284
      ],
      [
        "2",
        -4.015712949775315
      ],
      [
        "3",
        -4.51055244325895
      ],
      [
        "t",
        -4.755897585924709
      ],
      [
        "o",
        -4.7957653927286685
      ],
      [
        "4",
        -5.006567921448445
      ],
      [
        ":",
        -5.061991364402118
      ],
      [
        "heory",
        -5.293911659015867
      ],
      [
        "5",
        -5.307693567781847
      ],
      [
        "CategoryT",
        -5.32816251983588
      ],
      [
        "Semiring",
        -5.574271375118183
      ],
      [
        "+",
        -5.678645635004665
      ],
      [
        "max",
        -5.691274672065257
      ],
      [
        "6",
        -5.74282710891565
      ],
      [
        "CommSemiring",
        -5.9588598014017045
      ],
      [
        "7",
        -6.0406815460800924
      ],
      [
        "CommRing",
        -6.1052445676838385
      ],
      [
        "â",
        -6.121837454422973
      ],
      [
        "AddCommGroup",
        -6.131715039115928
      ],
      [
        "Real",
        -6.2208159878387175
      ],
      [
        "NonAssocSemiring",
        -6.222018112536036
      ],
      [
        "Nat",
        -6.347703950965768
      ],
      [
        "8",
        -6.361510016697951
      ],
      [
        "NormedField",
        -6.39108401653416
      ],
      [
        "[",
        -6.435296832753714
      ],
      [
        "]",
        -6.435296832753714
      ],
      [
        "Ĩ",
        -6.515533508130051
      ],
      [
        "Ĵ",
        -6.516105528228223
      ],
      [
        "to",
        -6.551324369405741
      ],
      [
        "9",
        -6.63521725758457
      ],
      [
        "i",
        -6.642232744141181
      ],
      [
        "seudoMetricSpace",
        -6.6501368964412
      ],
      [
        "Type",
        -6.674786261045627
      ],
      [
        "UniformSpace",
        -6.676894735365833
      ],
      [
        "=",
        -6.8069351982247
      ],
      [
        ">",
        -6.808358478561807
      ],
      [
        "fun",
        -6.808538827553832
      ],
      [
        "Functor",
        -6.837452718626404
      ],
      [
        "y",
        -6.8500312376222645
      ],
      [
        "toNonUnital",
        -6.8780766288935276
      ],
      [
        "Field",
        -6.879166470849476
      ],
      [
        "NonUnital",
        -6.931541780887692
      ],
      [
        "toAddCommMonoid",
        -6.987846346608816
      ],
      [
        "TopologicalSpace",
        -7.010465461342797
      ],
      [
        "CategoryStruct",
        -7.012854316465345
      ],
      [
        "N",
        -7.031562490534494
      ],
      [
        "P",
        -7.062434288157778
      ],
      [
        "nat_l",
        -7.072013289135192
      ],
      [
        "toSeminormed",
        -7.073567056898057
      ],
      [
        "Category",
        -7.078586730435234
      ],
      [
        "Set",
        -7.104327325767429
      ],
      [
        "Ring",
        -7.107176114179076
      ],
      [
        "field",
        -7.116782676217861
      ],
      [
        "Monoid",
        -7.195166919422675
      ],
      [
        "inst",
        -7.232536721748046
      ],
      [
        "Seminormed",
        -7.23631697147073
      ],
      [
        "AddCommMonoid",
        -7.236924852645194
      ],
      [
        "Complex",
        -7.264229832670107
      ],
      [
        "Ģ",
        -7.3240300494785835
      ],
      [
        "c",
        -7.340580369877607
      ],
      [
        "Ī",
        -7.364672074111883
      ],
      [
        "Algebraic",
        -7.371312991137714
      ],
      [
        "Geometr",
        -7.371552346175246
      ],
      [
        "rmedAddCommGroup",
        -7.374793130608953
      ],
      [
        "toP",
        -7.4014323197913345
      ],
      [
        "arrier",
        -7.437935871846371
      ],
      [
        "Quiver",
        -7.4506035891631015
      ],
      [
        "Int",
        -7.463651194312476
      ],
      [
        "Algebra",
        -7.509860917831954
      ],
      [
        "AddZeroClass",
        -7.539283063910153
      ],
      [
        "OfNat",
        -7.542288186147584
      ],
      [
        "instCategory",
        -7.565451431557577
      ],
      [
        "ofNat",
        -7.5702061474383395
      ],
      [
        "AddMonoid",
        -7.62508748120017
      ],
      [
        "Limits",
        -7.6370974733962225
      ],
      [
        "Preorder",
        -7.641602056223174
      ],
      [
        "Eq",
        -7.655003643345735
      ],
      [
        "CommRingCat",
        -7.6787689838376
      ],
      [
        "toAddMonoid",
        -7.70027947077398
      ],
      [
        "Semi",
        -7.716224860150271
      ],
      [
        "toModule",
        -7.723768762132842
      ],
      [
        "NonAssocRing",
        -7.730645103656707
      ],
      [
        "toDivision",
        -7.732507144293017
      ],
      [
        "PartialOrder",
        -7.741670085420299
      ],
      [
        "toSemi",
        -7.768318786755664
      ],
      [
        "l",
        -7.8139211248258515
      ],
      [
        "toMonoid",
        -7.824524098984158
      ],
      [
        "TopCat",
        -7.846442176475206
      ],
      [
        "Measure",
        -7.848453067716564
      ],
      [
        "Hom",
        -7.874161664554455
      ],
      [
        "NormedCommRing",
        -7.891656791380452
      ],
      [
        "Fin",
        -7.901964876654002
      ],
      [
        "Nontrivial",
        -7.917677704886893
      ],
      [
        "CommMonoid",
        -7.930627818553424
      ],
      [
        "Prod",
        -7.943215790407482
      ],
      [
        "NormedSpace",
        -7.973409667147024
      ],
      [
        "MulOneClass",
        -7.977171368726204
      ],
      [
        "Division",
        -7.9784166962793766
      ],
      [
        "edAddCommGroup",
        -7.996843015797769
      ],
      [
        "AddGroup",
        -8.005301536407659
      ],
      [
        "d",
        -8.009662020889008
      ],
      [
        "Polynomial",
        -8.03408681357083
      ],
      [
        "Normed",
        -8.043305668877675
      ],
      [
        "Membership",
        -8.060166236006117
      ],
      [
        "instMembership",
        -8.065462023618544
      ],
      [
        "mem",
        -8.070092398519028
      ],
      [
        "RingHom",
        -8.07962711021022
      ],
      [
        "Opposite",
        -8.100339047730746
      ],
      [
        "Module",
        -8.124640713378401
      ],
      [
        "category",
        -8.12606758068607
      ],
      [
        "obj",
        -8.12931760582142
      ],
      [
        "toRing",
        -8.135521884826007
      ],
      [
        "u_1",
        -8.139722556686731
      ],
      [
        "L",
        -8.182617180278815
      ],
      [
        "SeminormedRing",
        -8.194954557018864
      ],
      [
        "RCLike",
        -8.211535956079253
      ],
      [
        "Subtype",
        -8.2284520032859
      ],
      [
        "Finset",
        -8.232469494332449
      ],
      [
        "u_2",
        -8.238310294665094
      ],
      [
        "s",
        -8.24664709601468
      ],
      [
        "toAddZero",
        -8.259651460850192
      ],
      [
        "ENNReal",
        -8.263114115722596
      ],
      [
        "n",
        -8.268198144071146
      ],
      [
        "SemilatticeInf",
        -8.285591098823309
      ],
      [
        "MonoidalCategory",
        -8.312143362845129
      ],
      [
        "Scheme",
        -8.314550920376407
      ],
      [
        "e",
        -8.32045312064668
      ],
      [
        "DivInvMonoid",
        -8.33370965549591
      ],
      [
        "Submodule",
        -8.340528526936561
      ],
      [
        "toZero",
        -8.347265541808179
      ],
      [
        "p",
        -8.362510006446525
      ],
      [
        "toAddGroup",
        -8.388444207097127
      ],
      [
        "I",
        -8.401220774120095
      ],
      [
        "SetLike",
        -8.4129783677301
      ],
      [
        "CommGroup",
        -8.420061244735711
      ],
      [
        "OfNatNat",
        -8.432299518029835
      ],
      [
        "T",
        -8.43845484338293
      ],
      [
        "coe",
        -8.445590154789215
      ],
      [
        "MonoidWithZero",
        -8.460106402023525
      ],
      [
        "Group",
        -8.478175215844567
      ],
      [
        "SMul",
        -8.478604797249085
      ],
      [
        "LinearMap",
        -8.492037276533411
      ],
      [
        "toAdd",
        -8.500637598522665
      ],
      [
        "DistribMulAction",
        -8.50118042387621
      ],
      [
        "WithOne",
        -8.502756887735432
      ],
      [
        "MulZeroClass",
        -8.510387684533168
      ],
      [
        "Theor",
        -8.51354582142346
      ],
      [
        "DistribLattice",
        -8.519243307147907
      ],
      [
        "toMonoidWithZero",
        -8.523386513988825
      ],
      [
        "Equiv",
        -8.526569596237929
      ],
      [
        "Densely",
        -8.529638183205948
      ],
      [
        "toAddCommGroup",
        -8.530899849986893
      ],
      [
        "Number",
        -8.5325289004515
      ],
      [
        "ModuleCat",
        -8.5346727374718
      ],
      [
        "h",
        -8.547383488025828
      ],
      [
        "comp",
        -8.562736512258814
      ],
      [
        "Lattice",
        -8.564823137470132
      ],
      [
        "DFunLike",
        -8.566759026491448
      ],
      [
        "str",
        -8.586950121953814
      ],
      [
        "ly",
        -8.60064970721143
      ],
      [
        "instSetLike",
        -8.610768874236978
      ],
      [
        "opposite",
        -8.621977607446842
      ],
      [
        "Bicategory",
        -8.625402426385293
      ],
      [
        "toMulOne",
        -8.646913602497627
      ],
      [
        "toOfNat",
        -8.657546651685868
      ],
      [
        "toDistrib",
        -8.665946944344688
      ],
      [
        "callyRingedSpace",
        -8.683817427561904
      ],
      [
        "Distrib",
        -8.70064193823489
      ],
      [
        "toDensely",
        -8.711083979992212
      ],
      [
        "onUnitalNonAssoc",
        -8.722010698490195
      ],
      [
        "C",
        -8.745951871218582
      ],
      [
        "__6",
        -8.78771529564164
      ],
      [
        "__7",
        -8.795472136679795
      ],
      [
        "toSubNeg",
        -8.796726997489532
      ],
      [
        "Subgroup",
        -8.797379748945145
      ],
      [
        "Opens",
        -8.803717924972876
      ],
      [
        "Preadditive",
        -8.814940850657454
      ],
      [
        "SubNeg",
        -8.815325629779391
      ],
      [
        "S",
        -8.830913269355504
      ],
      [
        "AddSubgroup",
        -8.836199346045712
      ],
      [
        "HAdd",
        -8.836417275804555
      ],
      [
        "AddZero",
        -8.838674183533886
      ],
      [
        "M",
        -8.848002225404578
      ],
      [
        "instFunLike",
        -8.850566983669394
      ],
      [
        "Norm",
        -8.85432910974678
      ],
      [
        "id",
        -8.859772442014169
      ],
      [
        "TensorProduct",
        -8.861098047152607
      ],
      [
        "MvPolynomial",
        -8.86233731609362
      ],
      [
        "SMulZeroClass",
        -8.865241902857846
      ],
      [
        "toLattice",
        -8.86996532446908
      ],
      [
        "Zero",
        -8.893158025022188
      ],
      [
        "SimplexCategory",
        -8.897348711728815
      ],
      [
        "oLE",
        -8.915728685735994
      ],
      [
        "instHAdd",
        -8.919363857087669
      ],
      [
        "hAdd",
        -8.920102504196867
      ],
      [
        "HasZeroMorphisms",
        -8.922660863055599
      ],
      [
        "Ideal",
        -8.961062828321603
      ],
      [
        "toMul",
        -8.970926131593128
      ],
      [
        "module",
        -8.972588498233229
      ],
      [
        "a",
        -8.979205876559371
      ],
      [
        "__5",
        -8.97975143674144
      ],
      [
        "instAdd",
        -8.999747087685865
      ],
      [
        "âĤ",
        -9.002448429694917
      ],
      [
        "toNormed",
        -9.004135930921034
      ],
      [
        "m",
        -9.004306576174216
      ],
      [
        "semiring",
        -9.007947109872815
      ],
      [
        "instOfNat",
        -9.011908067342667
      ],
      [
        "__4",
        -9.03737950138273
      ],
      [
        "Add",
        -9.040650506300903
      ],
      [
        "ShortComplex",
        -9.046636712164299
      ],
      [
        "Domain",
        -9.057528938844383
      ],
      [
        "Filter",
        -9.064466694365933
      ],
      [
        "toSMul",
        -9.066438407823224
      ],
      [
        "PresheafedSpace",
        -9.076330238216503
      ],
      [
        "AddCommGrpCat",
        -9.08388840961782
      ],
      [
        "Matrix",
        -9.10299467894108
      ],
      [
        "NonUnitalNormed",
        -9.10803527671673
      ],
      [
        "RingOfIntegers",
        -9.109630305753303
      ],
      [
        "Subalgebra",
        -9.11183768835865
      ],
      [
        "Continuous",
        -9.11576912055733
      ],
      [
        "NNReal",
        -9.124838351815994
      ],
      [
        "LE",
        -9.128739214155212
      ],
      [
        "DivisionRing",
        -9.131620570775652
      ],
      [
        "preadditive",
        -9.144411320444998
      ],
      [
        "Seminorm",
        -9.150261497076166
      ],
      [
        "Semigroup",
        -9.17051012655593
      ],
      [
        "MulZeroOneClass",
        -9.171640491232221
      ],
      [
        "mk",
        -9.172382119430003
      ],
      [
        "List",
        -9.174162048873342
      ],
      [
        "toSeminorm",
        -9.188799669453024
      ],
      [
        "types",
        -9.210774863427535
      ],
      [
        "alCategoryStruct",
        -9.215027194919006
      ],
      [
        "Mul",
        -9.21524114489084
      ],
      [
        "CompleteLattice",
        -9.225482739633389
      ],
      [
        "X",
        -9.23258670420662
      ],
      [
        "SheafedSpace",
        -9.233618398791034
      ],
      [
        "nnerProductSpace",
        -9.25854982390278
      ],
      [
        "PUnit",
        -9.263055749442703
      ],
      [
        "AEEqFun",
        -9.274616913573693
      ],
      [
        "OfLinearOrder",
        -9.277122383947729
      ],
      [
        "__3",
        -9.293552250594429
      ],
      [
        "Function",
        -9.296120714293322
      ],
      [
        "f",
        -9.296823686130379
      ],
      [
        "Class",
        -9.312624951751898
      ],
      [
        "toCommMonoid",
        -9.315330064218394
      ],
      [
        "it",
        -9.317678870038037
      ],
      [
        "toCommRing",
        -9.325391329546678
      ],
      [
        "Cat",
        -9.32860502906172
      ],
      [
        "Quotient",
        -9.333511758630369
      ],
      [
        "ENat",
        -9.334272278680322
      ],
      [
        "_root_",
        -9.347726256626819
      ],
      [
        "MonoidWithOne",
        -9.371992228071939
      ],
      [
        "Units",
        -9.380833841655498
      ],
      [
        "NegZeroClass",
        -9.38107152137506
      ],
      [
        "SubNegZeroMonoid",
        -9.381698264453615
      ],
      [
        "Discrete",
        -9.383199475788432
      ],
      [
        "Order",
        -9.389141537091637
      ],
      [
        "toESeminormed",
        -9.389306130950114
      ],
      [
        "ESeminormed",
        -9.392092997004745
      ],
      [
        "toSeminormedAdd",
        -9.392161008774968
      ],
      [
        "toSheafedSpace",
        -9.401005138231147
      ],
      [
        "Ordinal",
        -9.411343900392186
      ],
      [
        "toAddRightCancel",
        -9.428266529984759
      ],
      [
        "addCommMonoid",
        -9.431704907072067
      ],
      [
        "AddCancelMonoid",
        -9.43435379188111
      ],
      [
        "ĭ",
        -9.435533474433257
      ],
      [
        "¯",
        -9.435533474433257
      ],
      [
        "H",
        -9.453002387016575
      ],
      [
        "ubtractionMonoid",
        -9.463934706101268
      ],
      [
        "SemilatticeSup",
        -9.475404830087966
      ],
      [
        "toENormed",
        -9.475688307394915
      ],
      [
        "oPresheafedSpace",
        -9.476923625503934
      ],
      [
        "AddRightCancel",
        -9.478740739809627
      ],
      [
        "instSemiring",
        -9.478785527571963
      ],
      [
        "Finsupp",
        -9.483617807365397
      ],
      [
        "RingCat",
        -9.483886908713716
      ],
      [
        "SeminormedAdd",
        -9.491002161272467
      ],
      [
        "MeasurableSpace",
        -9.495075381731308
      ],
      [
        "Wit",
        -9.508234262215295
      ],
      [
        "Iff",
        -9.51015049687352
      ],
      [
        "toNonUnitalNo",
        -9.513607875218591
      ],
      [
        "MulOpposite",
        -9.515530158395496
      ],
      [
        "tVector",
        -9.516896157700339
      ],
      [
        "Submonoid",
        -9.52484574531851
      ],
      [
        "Sum",
        -9.52826562260489
      ],
      [
        "ormedRing",
        -9.529675949964433
      ],
      [
        "HMul",
        -9.532286897330748
      ],
      [
        "Top",
        -9.541456122057102
      ],
      [
        "Struct",
        -9.545313451959416
      ],
      [
        "ENormed",
        -9.54669707121195
      ],
      [
        "instHMul",
        -9.554980414279164
      ],
      [
        "ntermediateField",
        -9.567382887915834
      ],
      [
        "__2",
        -9.575996270743538
      ],
      [
        "Complete",
        -9.58807502917761
      ],
      [
        "ormedField",
        -9.588191156565173
      ],
      [
        "With",
        -9.590127595710412
      ],
      [
        "Extension",
        -9.594387826065848
      ],
      [
        "MulOne",
        -9.606727015303296
      ],
      [
        "NormedAddGroup",
        -9.608540504982546
      ],
      [
        "smallCategory",
        -9.61186461449411
      ],
      [
        "Over",
        -9.611889544045834
      ],
      [
        "InfinitePlace",
        -9.619356451920295
      ],
      [
        "Topology",
        -9.619401088491147
      ],
      [
        "ESeminormedAdd",
        -9.626784698367233
      ],
      [
        "instCommRing",
        -9.628862052895753
      ],
      [
        "tensorObj",
        -9.632028209694308
      ],
      [
        "map",
        -9.63745888854796
      ],
      [
        "One",
        -9.645706288922582
      ],
      [
        "r",
        -9.646004421056272
      ],
      [
        "Cartesian",
        -9.6506510394169
      ],
      [
        "commRing",
        -9.653989728316178
      ],
      [
        "instZero",
        -9.656423165231082
      ],
      [
        "toESeminormedAdd",
        -9.659227268569559
      ],
      [
        "BooleanAlgebra",
        -9.664063954107029
      ],
      [
        "Multiplicative",
        -9.664826288877665
      ],
      [
        "Euclidean",
        -9.665874763923867
      ],
      [
        "instPartialOrder",
        -9.666776598351609
      ],
      [
        "Rat",
        -9.66865147372386
      ],
      [
        "rmedRing",
        -9.67071116450378
      ],
      [
        "instRing",
        -9.686718372154225
      ],
      [
        "F",
        -9.687764680683339
      ],
      [
        "GroupWithOne",
        -9.695811011538684
      ],
      [
        "__8",
        -9.69597949585958
      ],
      [
        "MetricSpace",
        -9.697363537104124
      ],
      [
        "instCommSemiring",
        -9.714432669192496
      ],
      [
        "Elem",
        -9.716181232460771
      ],
      [
        "toLo",
        -9.720840605422655
      ],
      [
        "Action",
        -9.735372721853901
      ],
      [
        "AddMonoidHom",
        -9.743778315866724
      ],
      [
        "Iso",
        -9.749839759720015
      ],
      [
        "toMonoidal",
        -9.751188585200193
      ],
      [
        "MonoidHom",
        -9.756909449169264
      ],
      [
        "toOne",
        -9.760407633670729
      ],
      [
        "WithZero",
        -9.765482843826558
      ],
      [
        "Free",
        -9.7698425576792
      ],
      [
        "ZMod",
        -9.77730475878974
      ],
      [
        "toEuclidean",
        -9.781436358933377
      ],
      [
        "Prop",
        -9.78462451467246
      ],
      [
        "SSet",
        -9.793052943622556
      ],
      [
        "instModule",
        -9.793827018917131
      ],
      [
        "LinearOrder",
        -9.795312153720497
      ],
      [
        "Div",
        -9.796488145164862
      ],
      [
        "ENormedAdd",
        -9.80320202700326
      ],
      [
        "HSub",
        -9.80568402315027
      ],
      [
        "toIsTopological",
        -9.810482753114963
      ],
      [
        "age",
        -9.812005284660902
      ],
      [
        "FunLike",
        -9.812573311040012
      ],
      [
        "val",
        -9.817761254730355
      ],
      [
        "Ĥ",
        -9.821476789011706
      ],
      [
        "AddTorsor",
        -9.823065156765445
      ],
      [
        "discrete",
        -9.824546979018834
      ],
      [
        "W",
        -9.837013345522395
      ],
      [
        "ContinuousMap",
        -9.845314951966976
      ],
      [
        "instAddGroup",
        -9.848472277162642
      ],
      [
        "SimpleGraph",
        -9.862332518230783
      ],
      [
        "angu",
        -9.864365153129569
      ],
      [
        "'",
        -9.871962627658949
      ],
      [
        "ompHausLike",
        -9.87728638326797
      ],
      [
        "Abelian",
        -9.882376407835554
      ],
      [
        "instAddCommGroup",
        -9.897899716334091
      ],
      [
        "toENormedAdd",
        -9.899548022321277
      ],
      [
        "Sort",
        -9.899661956389
      ],
      [
        "Condition",
        -9.901137972508533
      ],
      [
        "First",
        -9.90338431358906
      ],
      [
        "vPair",
        -9.91044347282169
      ],
      [
        "__1",
        -9.916611392683539
      ],
      [
        "Pair",
        -9.919061774223472
      ],
      [
        "EquivLike",
        -9.9344150212192
      ],
      [
        "_proof_1",
        -9.935121296491769
      ],
      [
        "toL",
        -9.936787273914328
      ],
      [
        "instNormedField",
        -9.942744093061474
      ],
      [
        "instEquivLike",
        -9.94351131969892
      ],
      [
        "ologicalComplex",
        -9.949768328757049
      ],
      [
        "Î",
        -9.95194141466531
      ],
      [
        "MulAction",
        -9.953603540998847
      ],
      [
        "rimeSpectrum",
        -9.962455081767212
      ],
      [
        "A",
        -9.962929793705767
      ],
      [
        "RingHomI",
        -9.96919345794607
      ],
      [
        "LT",
        -9.976049423699045
      ],
      [
        "ormedCommRing",
        -9.981435134277067
      ],
      [
        "No",
        -9.98353446723705
      ],
      [
        "E",
        -9.987728828925185
      ],
      [
        "instMul",
        -9.9909040785175
      ],
      [
        "Walking",
        -10.012342767179103
      ],
      [
        "unop",
        -10.013345607009107
      ],
      [
        "Grothendieck",
        -10.014821714909347
      ],
      [
        "And",
        -10.022749570487507
      ],
      [
        "NonAssoc",
        -10.02367531693402
      ],
      [
        "ArchimedeanClass",
        -10.02698456582042
      ],
      [
        "Sigma",
        -10.02864163681948
      ],
      [
        "allyComplete",
        -10.035894302182028
      ],
      [
        "Monoidal",
        -10.042541958221902
      ],
      [
        "instPreorder",
        -10.04437575051285
      ],
      [
        "AddSemigroup",
        -10.05051555392821
      ],
      [
        "Cardinal",
        -10.05250781304395
      ],
      [
        "instLE",
        -10.056453710418896
      ],
      [
        "Perm",
        -10.056463626759223
      ],
      [
        "toN",
        -10.05867051134469
      ],
      [
        "ultiset",
        -10.06190125720751
      ],
      [
        "Subtraction",
        -10.061914950514598
      ],
      [
        "PGame",
        -10.062660572983681
      ],
      [
        "AddSubmonoid",
        -10.070710099587275
      ],
      [
        "onUnitalCommRing",
        -10.09106205947452
      ],
      [
        "left",
        -10.091071132966384
      ],
      [
        "Pow",
        -10.095852075280332
      ],
      [
        "ComplexShape",
        -10.104640769218374
      ],
      [
        "orphismProperty",
        -10.105394101217104
      ],
      [
        "IsScalarTower",
        -10.112368518799045
      ],
      [
        "Pretriangulated",
        -10.115765889355508
      ],
      [
        "toAddSemigroup",
        -10.117987128005964
      ],
      [
        "MonCat",
        -10.125690727051131
      ],
      [
        "fst",
        -10.135693002028
      ],
      [
        "HPow",
        -10.138920780831924
      ],
      [
        "OrderDual",
        -10.142449905992338
      ],
      [
        "instOne",
        -10.143856462584871
      ],
      [
        "instHPow",
        -10.144244910624566
      ],
      [
        "D",
        -10.144378160118269
      ],
      [
        "Comma",
        -10.1538746865543
      ],
      [
        "GrpCat",
        -10.164472131983983
      ],
      [
        "WithTop",
        -10.170620442509984
      ],
      [
        "GroupWithZero",
        -10.17467600604796
      ],
      [
        "AddCommMagma",
        -10.17750176210036
      ],
      [
        "Equivalence",
        -10.182528085634699
      ],
      [
        "SetT",
        -10.186487687787162
      ],
      [
        "Pullback",
        -10.191753075375836
      ],
      [
        "hom",
        -10.200784359967255
      ],
      [
        "toMulAction",
        -10.202534745591906
      ],
      [
        "Subring",
        -10.203280237436777
      ],
      [
        "IsTopological",
        -10.204458027716507
      ],
      [
        "succ",
        -10.204654446138798
      ],
      [
        "CStarAlgebra",
        -10.212181897052625
      ],
      [
        "toNo",
        -10.215555229591072
      ],
      [
        "Exists",
        -10.215821308986536
      ],
      [
        "prod",
        -10.215940646442979
      ],
      [
        "Object",
        -10.216750604391981
      ],
      [
        "Sheaf",
        -10.229544191982878
      ],
      [
        "AddCommSemigroup",
        -10.22975927621976
      ],
      [
        "NonUnitalNo",
        -10.23965604312121
      ],
      [
        "toS",
        -10.253642539402115
      ],
      [
        "FintypeCat",
        -10.258118701825683
      ],
      [
        "AlgHom",
        -10.259700430731234
      ],
      [
        "Embedding",
        -10.269472003401809
      ],
      [
        "InvolutiveStar",
        -10.27661730644022
      ],
      [
        "Initial",
        -10.28300164643468
      ],
      [
        "top",
        -10.286087453868387
      ],
      [
        "k",
        -10.287503830333751
      ],
      [
        "Sub",
        -10.294238688370296
      ],
      [
        "toSemigroup",
        -10.303234138446838
      ],
      [
        "Unit",
        -10.304385501373261
      ],
      [
        "functor",
        -10.304549291338411
      ],
      [
        "instMonoid",
        -10.320219833465936
      ],
      [
        "Map",
        -10.321204411163407
      ],
      [
        "etLike",
        -10.32824128174115
      ],
      [
        "snd",
        -10.329579480564098
      ],
      [
        "HSMul",
        -10.334248731455673
      ],
      [
        "cast",
        -10.334297715342277
      ],
      [
        "instHSMul",
        -10.335781244687173
      ],
      [
        "CancelCommMonoid",
        -10.3367670318207
      ],
      [
        "toStar",
        -10.337688794608
      ],
      [
        "Cone",
        -10.344459767066663
      ],
      [
        "nAssocSemiring",
        -10.349458791427706
      ],
      [
        "ĥ",
        -10.351831569589661
      ],
      [
        "NormedAdd",
        -10.353908630514974
      ],
      [
        "Subsemiring",
        -10.355535406195902
      ],
      [
        "AddMonCat",
        -10.35809138557041
      ],
      [
        "Idempotent",
        -10.360527410234235
      ],
      [
        "Generators",
        -10.367293171941842
      ],
      [
        "Quadratic",
        -10.367992576631902
      ],
      [
        "instH",
        -10.370955244768012
      ],
      [
        "Option",
        -10.37147835016511
      ],
      [
        "toNorm",
        -10.372455160001127
      ],
      [
        "ģ",
        -10.379530242176447
      ],
      [
        "OrderBot",
        -10.38476301563212
      ],
      [
        "DecidableEq",
        -10.39567250967904
      ],
      [
        "toNontrivial",
        -10.396247930280609
      ],
      [
        "Padic",
        -10.398590126458704
      ],
      [
        "Probability",
        -10.401159623347525
      ],
      [
        "Karoubi",
        -10.401662790385446
      ],
      [
        "hSub",
        -10.405600253733923
      ],
      [
        "PreLp",
        -10.40664144287384
      ],
      [
        "LieRing",
        -10.408160641405772
      ],
      [
        "NonUnitalRing",
        -10.423941488883266
      ],
      [
        "Mon",
        -10.434253530538918
      ],
      [
        "toTop",
        -10.447606076492363
      ],
      [
        "HasQuotient",
        -10.44925536377769
      ],
      [
        "ieAlgebra",
        -10.449481883870853
      ],
      [
        "Categorical",
        -10.45133083515334
      ],
      [
        "Homotopic",
        -10.451733766789424
      ],
      [
        "inv",
        -10.453565644899813
      ],
      [
        "mologicalComplex",
        -10.454990795564528
      ],
      [
        "Property",
        -10.456090497415214
      ],
      [
        "MonoidAlgebra",
        -10.457578905817543
      ],
      [
        "eLocalization",
        -10.4641272606347
      ],
      [
        "Or",
        -10.468735283964953
      ],
      [
        "AtLeastTwo",
        -10.46960825847142
      ],
      [
        "NatPow",
        -10.473414907732295
      ],
      [
        "instAlgebra",
        -10.474586160678127
      ],
      [
        "PowerSeries",
        -10.476591236023504
      ],
      [
        "Fintype",
        -10.477117883207523
      ],
      [
        "Finite",
        -10.478066569681475
      ],
      [
        "fintype",
        -10.478662784939058
      ],
      [
        "R",
        -10.480570602828823
      ],
      [
        "CommGrpCat",
        -10.49088357236646
      ],
      [
        "AddGrpCat",
        -10.50135175176875
      ],
      [
        "ommSemiring",
        -10.514465852230195
      ],
      [
        "Localization",
        -10.523369792994387
      ],
      [
        "Grp",
        -10.53817845438381
      ],
      [
        "Triangle",
        -10.540250000520093
      ],
      [
        "Terminal",
        -10.540326793801034
      ],
      [
        "toComplete",
        -10.551074255921362
      ],
      [
        "Neg",
        -10.551362381013552
      ],
      [
        "range",
        -10.551668051009836
      ],
      [
        "b",
        -10.555407273001617
      ],
      [
        "lAlgebra",
        -10.562626019399316
      ],
      [
        "toGroup",
        -10.566653283215457
      ],
      [
        "symm",
        -10.571857615828746
      ],
      [
        "homCategory",
        -10.57358830987205
      ],
      [
        "Singleton",
        -10.573710421104423
      ],
      [
        "ValuationSubring",
        -10.574429654203081
      ],
      [
        "Cocone",
        -10.574747062064613
      ],
      [
        "singleton",
        -10.57556935541646
      ],
      [
        "Truncated",
        -10.579123394655692
      ],
      [
        "WalkingPa",
        -10.580488764318696
      ],
      [
        "Affine",
        -10.581998858436782
      ],
      [
        "Star",
        -10.58340084016103
      ],
      [
        "Subfield",
        -10.584796684086387
      ],
      [
        "reZeroHypercover",
        -10.585814867426432
      ],
      [
        "End",
        -10.58883433107143
      ],
      [
        "Turing",
        -10.591744950436025
      ],
      [
        "neg",
        -10.599537059632159
      ],
      [
        "CommMonCat",
        -10.599732455760112
      ],
      [
        "LinearEquiv",
        -10.608921739587156
      ],
      [
        "Succ",
        -10.612221244713467
      ],
      [
        "instHasQuotient",
        -10.614705326156095
      ],
      [
        "right",
        -10.62389236365209
      ],
      [
        "instLT",
        -10.626645333295487
      ],
      [
        "Nonempty",
        -10.630495531922342
      ],
      [
        "instAddMonoid",
        -10.633373993132693
      ],
      [
        "AddCommMonCat",
        -10.634003756224
      ],
      [
        "MultilinearMap",
        -10.634668963689531
      ],
      [
        "AffineSubspace",
        -10.635781525503052
      ],
      [
        "Bot",
        -10.63779858989883
      ],
      [
        "Bool",
        -10.638606870908967
      ],
      [
        "instNeZero",
        -10.639253418434619
      ],
      [
        "VAdd",
        -10.639652201830831
      ],
      [
        "Is",
        -10.640497546452405
      ],
      [
        "Lat",
        -10.644361830359367
      ],
      [
        "instGroup",
        -10.649459057836538
      ],
      [
        "Box",
        -10.654869926390841
      ],
      [
        "O",
        -10.655855643479008
      ],
      [
        "CliffordAlgebra",
        -10.656642882083519
      ],
      [
        "Exterior",
        -10.658357418364709
      ],
      [
        "le",
        -10.662666815477149
      ],
      [
        "partialOrder",
        -10.665513354137163
      ],
      [
        "Coheyting",
        -10.671155988868032
      ],
      [
        "_proof_",
        -10.673142150481164
      ],
      [
        "prod'",
        -10.678979803927133
      ],
      [
        "CatCommSq",
        -10.681316709532018
      ],
      [
        "WithBot",
        -10.68245252373269
      ],
      [
        "ring",
        -10.688251432259303
      ],
      [
        "to_smulCommClass",
        -10.693800516232612
      ],
      [
        "Subset",
        -10.709748130772496
      ],
      [
        "densely",
        -10.710102450606232
      ],
      [
        "InvOneClass",
        -10.716699133148287
      ],
      [
        "Form",
        -10.718670875586495
      ],
      [
        "DivInvOneMonoid",
        -10.720236484431632
      ],
      [
        "SimplicialObject",
        -10.726828194116154
      ],
      [
        "CompHaus",
        -10.7283191278197
      ],
      [
        "B",
        -10.730117613390686
      ],
      [
        "norm",
        -10.733562112964767
      ],
      [
        "Spec",
        -10.73429492758129
      ],
      [
        "instTop",
        -10.735002762881091
      ],
      [
        "zero",
        -10.739442406843153
      ],
      [
        "Atomic",
        -10.74256410555652
      ],
      [
        "algebra",
        -10.742573872074962
      ],
      [
        "Prefunctor",
        -10.744927965623043
      ],
      [
        "CommAlgCat",
        -10.745047754335168
      ],
      [
        "Totally",
        -10.746589196441645
      ],
      [
        "Presentation",
        -10.747398090706502
      ],
      [
        "unLike",
        -10.750506583958316
      ],
      [
        "sum",
        -10.760449703063452
      ],
      [
        "nstAddCommMonoid",
        -10.7651435616298
      ],
      [
        "Bialgebra",
        -10.767422611758644
      ],
      [
        "isconnectedSpace",
        -10.76987229849992
      ],
      [
        "Bundle",
        -10.773045700059239
      ],
      [
        "Hahn",
        -10.777818578237314
      ],
      [
        "instNatCast",
        -10.77917009982053
      ],
      [
        "NatTrans",
        -10.795922249108083
      ],
      [
        "ocallyDiscrete",
        -10.796025414123337
      ],
      [
        "instDecidableEq",
        -10.797112418632523
      ],
      [
        "Series",
        -10.800471579864032
      ],
      [
        "Kernel",
        -10.800936870101408
      ],
      [
        "toAlgebra",
        -10.810715068573924
      ],
      [
        "instLinearOrder",
        -10.819488220824283
      ],
      [
        "tensorUnit",
        -10.825713972781081
      ],
      [
        "smulCommClass",
        -10.828797574492068
      ],
      [
        "Tru",
        -10.831970724147595
      ],
      [
        "GradedObject",
        -10.832216677844093
      ],
      [
        "StarRing",
        -10.83291805802334
      ],
      [
        "HasSubset",
        -10.835347923599956
      ],
      [
        "Arrow",
        -10.837165379838453
      ],
      [
        "AlgEquiv",
        -10.837470677934023
      ],
      [
        "SingletonSet",
        -10.841975794294314
      ],
      [
        "Coalgebra",
        -10.852221848733077
      ],
      [
        "addCommGroup",
        -10.85288098262115
      ],
      [
        "instHasSubset",
        -10.857168766625845
      ],
      [
        "G",
        -10.85941463454809
      ],
      [
        "â¦",
        -10.86578054318312
      ],
      [
        "PartOrd",
        -10.870716410328253
      ],
      [
        "Ho",
        -10.874146289433918
      ],
      [
        "Comm",
        -10.874314213251628
      ],
      [
        "AddAction",
        -10.87598151713718
      ],
      [
        "FractionRing",
        -10.879109450958158
      ],
      [
        "Omega",
        -10.881427953493098
      ],
      [
        "Differential",
        -10.888130968966456
      ],
      [
        "Homological",
        -10.892723272096418
      ],
      [
        "MvPowerSeries",
        -10.892915610713054
      ],
      [
        "Monad",
        -10.896348467767302
      ],
      [
        "NatCast",
        -10.897959565168378
      ],
      [
        "span",
        -10.90051156111943
      ],
      [
        "nAssocRing",
        -10.904098095462233
      ],
      [
        "shiftFunctor",
        -10.90907957240313
      ],
      [
        "ProductSpaceReal",
        -10.909211521860362
      ],
      [
        "complex",
        -10.909971534996428
      ],
      [
        "Rel",
        -10.912542003253032
      ],
      [
        "tionallyComplete",
        -10.91594837817597
      ],
      [
        "toCond",
        -10.916548663245472
      ],
      [
        "Self",
        -10.91847740127579
      ],
      [
        "instComplete",
        -10.9188432676734
      ],
      [
        "toIsRightCancel",
        -10.919528920553361
      ],
      [
        "PrelaxFunctor",
        -10.921533341284963
      ],
      [
        "MonoidalOpposite",
        -10.928188141526451
      ],
      [
        "app",
        -10.933025999819705
      ],
      [
        "CochainComplex",
        -10.933077726510572
      ],
      [
        "LieSubmodule",
        -10.941318078051253
      ],
      [
        "x",
        -10.943672615295224
      ],
      [
        "nhds",
        -10.95516783734951
      ],
      [
        "AddOpposite",
        -10.95829469384779
      ],
      [
        "Subobject",
        -10.958440967493805
      ],
      [
        "FullSubcategory",
        -10.966652732804517
      ],
      [
        "Inv",
        -10.967967066526805
      ],
      [
        "RootPairing",
        -10.968833651001926
      ],
      [
        "card",
        -10.969025989828985
      ],
      [
        "_1",
        -10.974465379394571
      ],
      [
        "toFun",
        -10.974969207464454
      ],
      [
        "Additive",
        -10.975822991005542
      ],
      [
        "Coprod",
        -10.97636109023081
      ],
      [
        "_self",
        -10.977491114759866
      ],
      [
        "GlueData",
        -10.978263833698662
      ],
      [
        "NNRat",
        -10.979003670493686
      ],
      [
        "MulEquiv",
        -10.986445304369145
      ],
      [
        "nonZeroDivisors",
        -10.992531538775172
      ],
      [
        "instSub",
        -10.992886721773328
      ],
      [
        "toInner",
        -10.997874878141797
      ],
      [
        "Under",
        -11.000615320558392
      ],
      [
        "isModule",
        -11.001911373739022
      ],
      [
        "NonAssocComm",
        -11.004624257348155
      ],
      [
        "Param",
        -11.005513879277949
      ],
      [
        "Curve",
        -11.008372020289015
      ],
      [
        "Weierstrass",
        -11.012899383195478
      ],
      [
        "Ï",
        -11.01534238333356
      ],
      [
        "toPrelaxFunctor",
        -11.039278145647694
      ],
      [
        "Cover",
        -11.041715815421412
      ],
      [
        "stabilizer",
        -11.045908505325594
      ],
      [
        "AlgCat",
        -11.04930287684705
      ],
      [
        "WalkingParallel",
        -11.051697726601416
      ],
      [
        "Bounded",
        -11.052144497206793
      ],
      [
        "IsBounded",
        -11.058071981719424
      ],
      [
        "Circle",
        -11.05815030559433
      ],
      [
        "instPreadditive",
        -11.06255311479536
      ],
      [
        "image",
        -11.063609672134561
      ],
      [
        "ENorm",
        -11.069469909092023
      ],
      [
        "QuadraticMap",
        -11.070686937564325
      ],
      [
        "tinuousConstSMul",
        -11.071674673459427
      ],
      [
        "Lex",
        -11.073945514904686
      ],
      [
        "AddEquiv",
        -11.074606723951048
      ],
      [
        "Integral",
        -11.075718304335515
      ],
      [
        "Core",
        -11.084068149898366
      ],
      [
        "from",
        -11.100783420431025
      ],
      [
        "Partrec",
        -11.109177921514549
      ],
      [
        "forget",
        -11.116179075084675
      ],
      [
        "const",
        -11.117520952401613
      ],
      [
        "Kaehler",
        -11.123944930150552
      ],
      [
        "g",
        -11.131495681954984
      ],
      [
        "Space",
        -11.131757308575809
      ],
      [
        "HopfAlg",
        -11.133980039479365
      ],
      [
        "EmptyCollection",
        -11.137710528324671
      ],
      [
        "ConcreteCategory",
        -11.140604618029965
      ],
      [
        "MeasureSpace",
        -11.14281880460816
      ],
      [
        "ResidueField",
        -11.147544912201456
      ],
      [
        "toNeg",
        -11.147876608836334
      ],
      [
        "_proof_2",
        -11.148127616434051
      ],
      [
        "v",
        -11.148981373473214
      ],
      [
        "toExtension",
        -11.151954831216626
      ],
      [
        "some",
        -11.153127913271652
      ],
      [
        "DFinsupp",
        -11.159236235433598
      ],
      [
        "DivisionMonoid",
        -11.160297163165287
      ],
      [
        "Basis",
        -11.161778478999548
      ],
      [
        "Walk",
        -11.162459140630645
      ],
      [
        "BialgCat",
        -11.172128892095666
      ],
      [
        "BoundedOrder",
        -11.173947579386455
      ],
      [
        "toDiv",
        -11.175622315178826
      ],
      [
        "AddCircle",
        -11.179972923798784
      ],
      [
        "Pre",
        -11.180864311260278
      ],
      [
        "Angle",
        -11.182847612412173
      ],
      [
        "Join",
        -11.183567772007999
      ],
      [
        "argeCategory",
        -11.187141962805915
      ],
      [
        "IsLocalRing",
        -11.190212112432308
      ],
      [
        "Data",
        -11.195083175714295
      ],
      [
        "inearOrderedComm",
        -11.196871330048385
      ],
      [
        "toSub",
        -11.197692483869934
      ],
      [
        "Subsemigroup",
        -11.198284468913783
      ],
      [
        "Adj",
        -11.198896396994904
      ],
      [
        "bot",
        -11.20107588935186
      ],
      [
        "instField",
        -11.204908413223318
      ],
      [
        "toContinuousAdd",
        -11.206587895677126
      ],
      [
        "Ħ",
        -11.207927475872301
      ],
      [
        "Sieve",
        -11.208262081062216
      ],
      [
        "algCat",
        -11.208431627894395
      ],
      [
        "Comonad",
        -11.209058266000952
      ],
      [
        "Heyting",
        -11.210463118619472
      ],
      [
        "¹",
        -11.211005818506077
      ],
      [
        "moduleCat",
        -11.212879249782544
      ],
      [
        "OrderHom",
        -11.21795260541782
      ],
      [
        "NormedAlgebra",
        -11.219050880129132
      ],
      [
        "OuterMeasure",
        -11.220613900423684
      ],
      [
        "toInt",
        -11.223625900214769
      ],
      [
        "toPseudo",
        -11.226905127979474
      ],
      [
        "PartialEquiv",
        -11.230933750844233
      ],
      [
        "univ",
        -11.235049363343046
      ],
      [
        "Injective",
        -11.240617089731957
      ],
      [
        "toNonUnitalRing",
        -11.247948294575773
      ],
      [
        "Comon",
        -11.250709343774442
      ],
      [
        "Valuation",
        -11.25425364534821
      ],
      [
        "Dual",
        -11.257812486520823
      ],
      [
        "±",
        -11.260000297948666
      ],
      [
        "RatFunc",
        -11.260367804281469
      ],
      [
        "real",
        -11.268151324946247
      ],
      [
        "topologicalSpace",
        -11.269201286673031
      ],
      [
        "IsStrictOrdered",
        -11.269514852215758
      ],
      [
        "Metric",
        -11.271946573145357
      ],
      [
        "instAddN",
        -11.272841076730776
      ],
      [
        "RingEquiv",
        -11.274156673458753
      ],
      [
        "AddSubsemigroup",
        -11.275666038500956
      ],
      [
        "artialHomeomorph",
        -11.27594524686339
      ],
      [
        "FreeMonoid",
        -11.276016132514943
      ],
      [
        "Paths",
        -11.27901409776693
      ],
      [
        "Quaternion",
        -11.281782430899687
      ],
      [
        "Generalized",
        -11.282640576030934
      ],
      [
        "Presheaf",
        -11.2861277705769
      ],
      [
        "Con",
        -11.28691340663455
      ],
      [
        "LocallyFinite",
        -11.286956899412479
      ],
      [
        "toModuleCat",
        -11.287026133208693
      ],
      [
        "quasispectrum",
        -11.287397213354618
      ],
      [
        "_2",
        -11.289505176007651
      ],
      [
        "add",
        -11.294530160101734
      ],
      [
        "OpenP",
        -11.295295631122112
      ],
      [
        "Lean",
        -11.296173606740924
      ],
      [
        "OrderTop",
        -11.29657206968515
      ],
      [
        "Max",
        -11.29759005488199
      ],
      [
        "alRightAction",
        -11.300193124900481
      ],
      [
        "Part",
        -11.30214763425287
      ],
      [
        "preimage",
        -11.307521611776224
      ],
      [
        "oreSet",
        -11.31035672849947
      ],
      [
        "Model",
        -11.321552421865318
      ],
      [
        "PreOneHypercover",
        -11.323092850964944
      ],
      [
        "sizeOf",
        -11.323559439716508
      ],
      [
        "SeminormedComm",
        -11.324227125550355
      ],
      [
        "DirectSum",
        -11.327391042462477
      ],
      [
        "AlternatingMap",
        -11.328848328774749
      ],
      [
        "HomClass",
        -11.331445004334508
      ],
      [
        "Iic",
        -11.331692694999926
      ],
      [
        "Dist",
        -11.332063776717845
      ],
      [
        "Empty",
        -11.33251309947222
      ],
      [
        "troid",
        -11.342499424710129
      ],
      [
        "Dvd",
        -11.342795893595385
      ],
      [
        "last",
        -11.346256835900181
      ],
      [
        "oCompleteLattice",
        -11.34744739714784
      ],
      [
        "alLeftAction",
        -11.349537457283532
      ],
      [
        "TangentSpace",
        -11.35188296341811
      ],
      [
        "inverse",
        -11.354743797381634
      ],
      [
        "LieSubalgebra",
        -11.35476269457483
      ],
      [
        "MulAut",
        -11.356863294386981
      ],
      [
        "EMetricSpace",
        -11.358464388922698
      ],
      [
        "U",
        -11.360006839527252
      ],
      [
        "NormedAddComm",
        -11.362505685394922
      ],
      [
        "inOrd",
        -11.366008524425808
      ],
      [
        "linearOrder",
        -11.367702763456814
      ],
      [
        "idePullbackShape",
        -11.368300417011437
      ],
      [
        "nitInterval",
        -11.370181443258474
      ],
      [
        "oMax",
        -11.371124835146176
      ],
      [
        "Pseudofunctor",
        -11.373449122905594
      ],
      [
        "sTopologicalRing",
        -11.374448168898835
      ],
      [
        "ostructuredArrow",
        -11.378121250430523
      ],
      [
        "SupSet",
        -11.378678794096343
      ],
      [
        "RingCon",
        -11.382039407697599
      ],
      [
        "instNormed",
        -11.382680522613496
      ],
      [
        "ModelWithCorners",
        -11.383420912091392
      ],
      [
        "PairHom",
        -11.384868621198322
      ],
      [
        "cons",
        -11.384953605350741
      ],
      [
        "ommGroupWithZero",
        -11.387781373576415
      ],
      [
        "pullback",
        -11.388180248927032
      ],
      [
        "ker",
        -11.391338356371673
      ],
      [
        "walkingParallel",
        -11.39865020351038
      ],
      [
        "Groupoid",
        -11.40343095447811
      ],
      [
        "StarSubalgebra",
        -11.404372801042093
      ],
      [
        "SizeOf",
        -11.416101042512853
      ],
      [
        "WithL",
        -11.416516123285817
      ],
      [
        "toBoundedOrder",
        -11.41669079507445
      ],
      [
        "CommCStarAlgebra",
        -11.418135067169287
      ],
      [
        "measurableSpace",
        -11.420534959159383
      ],
      [
        "SemiNormed",
        -11.42523613478029
      ],
      [
        "Icc",
        -11.42691719632834
      ],
      [
        "Augmented",
        -11.438748922325654
      ],
      [
        "toFunctor",
        -11.44728783873538
      ],
      [
        "Eventually",
        -11.44874232537318
      ],
      [
        "ProfiniteGrp",
        -11.449033977710931
      ],
      [
        "ractionalIdeal",
        -11.44936518543523
      ],
      [
        "lit",
        -11.454738634122746
      ],
      [
        "ChartedSpace",
        -11.455239715536916
      ],
      [
        "Lo",
        -11.455863679604784
      ],
      [
        "ULift",
        -11.458815278168792
      ],
      [
        "Vector",
        -11.459964540204671
      ],
      [
        "setOf",
        -11.460978231952843
      ],
      [
        "Ext",
        -11.463758782857184
      ],
      [
        "ConstSMul",
        -11.467605783643283
      ],
      [
        "IsOrdered",
        -11.46840379759102
      ],
      [
        "partition",
        -11.46904601024981
      ],
      [
        "Has",
        -11.472716653429808
      ],
      [
        "Tendsto",
        -11.473894324275575
      ],
      [
        "lift",
        -11.477683176969292
      ],
      [
        "AdjoinRoot",
        -11.480417265204927
      ],
      [
        "Linear",
        -11.483089742734325
      ],
      [
        "toComm",
        -11.487257180405335
      ],
      [
        "categoryOf",
        -11.487383404265621
      ],
      [
        "Min",
        -11.488842618795363
      ],
      [
        "down",
        -11.490516614291538
      ],
      [
        "one",
        -11.495033554219745
      ],
      [
        "TotalSpace",
        -11.495485537592685
      ],
      [
        "Measurable",
        -11.49687973138779
      ],
      [
        "length",
        -11.500030871882169
      ],
      [
        "inr",
        -11.501005009161869
      ],
      [
        "instHasExplicit",
        -11.51096248077741
      ],
      [
        "alkingCospan",
        -11.51425943598892
      ],
      [
        "Tensor",
        -11.515095081464056
      ],
      [
        "Stream",
        -11.519831834212422
      ],
      [
        "algebraMap",
        -11.526952611120052
      ],
      [
        "Path",
        -11.528189271861068
      ],
      [
        "SMulCommClass",
        -11.534357629430277
      ],
      [
        "FreeGroup",
        -11.534792106415406
      ],
      [
        "instNeg",
        -11.537305673788962
      ],
      [
        "Substructure",
        -11.538477396090983
      ],
      [
        "Hyper",
        -11.540134107005096
      ],
      [
        "_16",
        -11.54097317653613
      ],
      [
        "ommBialgCat",
        -11.543935906756
      ],
      [
        "Projective",
        -11.544803220433112
      ],
      [
        "instMulOneClass",
        -11.544955056683053
      ],
      [
        "Endofunctor",
        -11.548740442281442
      ],
      [
        "instDivInvMonoid",
        -11.5491249469337
      ],
      [
        "center",
        -11.5619863117231
      ],
      [
        "comap",
        -11.56784256356315
      ],
      [
        "ĵ",
        -11.572798090849533
      ],
      [
        "toContinuous",
        -11.580563451376324
      ],
      [
        "Square",
        -11.581849886729982
      ],
      [
        "AddUnits",
        -11.582444939602965
      ],
      [
        "instAddCancel",
        -11.583959134760732
      ],
      [
        "pair",
        -11.584006138559369
      ],
      [
        "Of",
        -11.589969808916784
      ],
      [
        "ecialLinearGroup",
        -11.590059115381491
      ],
      [
        "instAddComm",
        -11.59385539393047
      ],
      [
        "callyFiniteOrder",
        -11.6027538990268
      ],
      [
        "Adjunction",
        -11.604582398539922
      ],
      [
        "Family",
        -11.608476425856189
      ],
      [
        "tion",
        -11.60982242973115
      ],
      [
        "bicategor",
        -11.609908430509847
      ],
      [
        "lyRingedSpace",
        -11.61060916416201
      ],
      [
        "instNo",
        -11.620792277396793
      ],
      [
        "Rep",
        -11.622037287648336
      ],
      [
        "Lie",
        -11.62235197572252
      ],
      [
        "HomotopyCategory",
        -11.624446383071861
      ],
      [
        "comma",
        -11.625244041231175
      ],
      [
        "Biheyting",
        -11.628695512492245
      ],
      [
        "NonUnitalSubring",
        -11.629093409967398
      ],
      [
        "Inter",
        -11.633338457103278
      ],
      [
        "instAddZeroClass",
        -11.635851546917626
      ],
      [
        "instOrderBot",
        -11.640879033136045
      ],
      [
        "Normal",
        -11.641514981299911
      ],
      [
        "mul",
        -11.644847845385002
      ],
      [
        "onditional",
        -11.646086385726788
      ],
      [
        "Precoverage",
        -11.646603645411993
      ],
      [
        "CommMon",
        -11.647947815332913
      ],
      [
        "LinearOrdered",
        -11.648027620660947
      ],
      [
        "oTM2",
        -11.654647750167427
      ],
      [
        "InfSet",
        -11.654777199879494
      ],
      [
        "Completion",
        -11.65887762108309
      ],
      [
        "IsReal",
        -11.659953784685662
      ],
      [
        "econdCountable",
        -11.66148982548558
      ],
      [
        "closure",
        -11.663617524746114
      ],
      [
        "CarrierCarrier",
        -11.66734558005677
      ],
      [
        "Positive",
        -11.667737668283904
      ],
      [
        "inter",
        -11.670298150909526
      ],
      [
        "Seq",
        -11.671666363128102
      ],
      [
        "Setoid",
        -11.67825259806294
      ],
      [
        "star",
        -11.679442978969917
      ],
      [
        "Structure",
        -11.679863189461898
      ],
      [
        "Unitization",
        -11.684291896276672
      ],
      [
        "Sym2",
        -11.686346968821626
      ],
      [
        "UpperHalfPlane",
        -11.686361710671093
      ],
      [
        "Formal",
        -11.686750758808847
      ],
      [
        "iUnion",
        -11.687922597745722
      ],
      [
        "Closed",
        -11.688427820860799
      ],
      [
        "support",
        -11.691237995355507
      ],
      [
        "_15",
        -11.696099039222092
      ],
      [
        "Surjective",
        -11.707416224275274
      ],
      [
        "toBot",
        -11.717202108732293
      ],
      [
        "ctionObj",
        -11.725560682213851
      ],
      [
        "ddDist",
        -11.726393531327666
      ],
      [
        "LightProfinite",
        -11.727390000799613
      ],
      [
        "alkingSpan",
        -11.727941483588145
      ],
      [
        "instInter",
        -11.728506317050352
      ],
      [
        "V",
        -11.734446336358033
      ],
      [
        "Presieve",
        -11.737436500035948
      ],
      [
        "algebraOf",
        -11.741749381273047
      ],
      [
        "Relations",
        -11.741808087192855
      ],
      [
        "succAbove",
        -11.745515661208012
      ],
      [
        "PNat",
        -11.746546922705964
      ],
      [
        "instSMul",
        -11.75047214721018
      ],
      [
        "restrict",
        -11.751013652170387
      ],
      [
        "Sublattice",
        -11.754181483373879
      ],
      [
        "Pointed",
        -11.760183326952363
      ],
      [
        "biproduct",
        -11.760541796832978
      ],
      [
        "nat_",
        -11.762090851232006
      ],
      [
        "Profinite",
        -11.76438329914796
      ],
      [
        "Fun",
        -11.764827678800234
      ],
      [
        "CommGrp",
        -11.766256584939207
      ],
      [
        "OrderIso",
        -11.766560020830102
      ],
      [
        "toProfinite",
        -11.769644596169615
      ],
      [
        "On",
        -11.771950441570075
      ],
      [
        "Sign",
        -11.772221228992446
      ],
      [
        "base",
        -11.77236512412129
      ],
      [
        "Skew",
        -11.772829243130273
      ],
      [
        "Product",
        -11.775471972329733
      ],
      [
        "toInv",
        -11.7778551090584
      ],
      [
        "Ab",
        -11.781769836636672
      ],
      [
        "toCategory",
        -11.78712108033019
      ],
      [
        "self",
        -11.789252069722275
      ],
      [
        "triangle",
        -11.789635902457693
      ],
      [
        "in",
        -11.79071548364758
      ],
      [
        "inl",
        -11.793025232905084
      ],
      [
        "Prime",
        -11.797103246083752
      ],
      [
        "auto",
        -11.798812191052859
      ],
      [
        "Unique",
        -11.799640788635367
      ],
      [
        "toGeneralized",
        -11.80058998031886
      ],
      [
        "PreG",
        -11.807889724947023
      ],
      [
        "iSup",
        -11.808742295220606
      ],
      [
        "Coproduct",
        -11.811407486244182
      ],
      [
        "instBot",
        -11.811911920147917
      ],
      [
        "ultispanShape",
        -11.812484259586304
      ],
      [
        "SingleObj",
        -11.81447644111853
      ],
      [
        "mptyCollection",
        -11.816882407132535
      ],
      [
        "Word",
        -11.818174029000222
      ],
      [
        "Mono",
        -11.819340048161585
      ],
      [
        "to_continuous",
        -11.820594521617785
      ],
      [
        "LinearIsometry",
        -11.825352593900925
      ],
      [
        "UniformCon",
        -11.825707205131343
      ],
      [
        "AddHom",
        -11.829591396643648
      ],
      [
        "nat",
        -11.830004218067455
      ],
      [
        "eudoEMetricSpace",
        -11.834673025540162
      ],
      [
        "toCoalgebra",
        -11.835967194745457
      ],
      [
        "Summa",
        -11.83917901820011
      ],
      [
        "Frame",
        -11.843655507446162
      ],
      [
        "StructuredArrow",
        -11.844707852708021
      ],
      [
        "Homeomorph",
        -11.846948484310692
      ],
      [
        "idePushoutShape",
        -11.852577580958496
      ],
      [
        "rallelPair",
        -11.854304436547636
      ],
      [
        "IsDomain",
        -11.854699555154003
      ],
      [
        "single",
        -11.858452806346511
      ],
      [
        "op",
        -11.859494834260538
      ],
      [
        "allyRingedSpace",
        -11.859699938865274
      ],
      [
        "Within",
        -11.860396462263939
      ],
      [
        "Compacts",
        -11.862141120106351
      ],
      [
        "toDist",
        -11.862756293105795
      ],
      [
        "locallyDiscrete",
        -11.863786158983634
      ],
      [
        "instPow",
        -11.86396830915136
      ],
      [
        "Fact",
        -11.864000904125858
      ],
      [
        "colimit",
        -11.864139226541752
      ],
      [
        "noidalCategoryOp",
        -11.872792677980991
      ],
      [
        "PiLp",
        -11.873170178565331
      ],
      [
        "Compl",
        -11.876992751790592
      ],
      [
        "simplicialObject",
        -11.877678688743785
      ],
      [
        "monoidalOpposite",
        -11.878374390047622
      ],
      [
        "HopfAlgebra",
        -11.88090901481218
      ],
      [
        "min",
        -11.883065044134366
      ],
      [
        "ndrec",
        -11.885214359406305
      ],
      [
        "Valuative",
        -11.887416937244927
      ],
      [
        "ins",
        -11.8881626800273
      ],
      [
        "instLattice",
        -11.88902666337179
      ],
      [
        "ubgraph",
        -11.890075599836246
      ],
      [
        "Ord",
        -11.896153397518194
      ],
      [
        "Inhabited",
        -11.89865129348668
      ],
      [
        "node",
        -11.90224101934592
      ],
      [
        "parallelPair",
        -11.904024528063921
      ],
      [
        "presheaf",
        -11.90949818247602
      ],
      [
        "Simplex",
        -11.910007784807865
      ],
      [
        "ReflexivePair",
        -11.910208378773078
      ],
      [
        "chwartz",
        -11.912630727942911
      ],
      [
        "FreeMonoidal",
        -11.915155839994473
      ],
      [
        "compl",
        -11.917046793148947
      ],
      [
        "BoolAlg",
        -11.919303374405313
      ],
      [
        "lieRing",
        -11.919588256614881
      ],
      [
        "LocallyConstant",
        -11.919731666957432
      ],
      [
        "ToType",
        -11.922900415982571
      ],
      [
        "Uniform",
        -11.924327135875094
      ],
      [
        "Index",
        -11.927147139306939
      ],
      [
        "Triple",
        -11.927763652661433
      ],
      [
        "toVAdd",
        -11.930232887626678
      ],
      [
        "AddCon",
        -11.931860533859696
      ],
      [
        "IsComple",
        -11.93261566011596
      ],
      [
        "rmedDivisionRing",
        -11.934376277364112
      ],
      [
        "trans",
        -11.937480256105701
      ],
      [
        "Co",
        -11.938338619216868
      ],
      [
        "Morphism",
        -11.938549025635695
      ],
      [
        "LieModule",
        -11.938565630085664
      ],
      [
        "Aux",
        -11.942433027094879
      ],
      [
        "is",
        -11.943734848011541
      ],
      [
        "instHas",
        -11.945448704700205
      ],
      [
        "Derivation",
        -11.945776884144372
      ],
      [
        "UpperSet",
        -11.949052463037827
      ],
      [
        "MeasurableSet",
        -11.949222842215965
      ],
      [
        "toLocal",
        -11.949936797914024
      ],
      [
        "Dia",
        -11.950795703629208
      ],
      [
        "Vec",
        -11.9533518482829
      ],
      [
        "toSeminormedComm",
        -11.953620189153138
      ],
      [
        "Obj",
        -11.95641355508658
      ],
      [
        "_14",
        -11.957896341235653
      ],
      [
        "aryPreExtensive",
        -11.958358378780996
      ],
      [
        "IsDedekindDomain",
        -11.958800893520563
      ],
      [
        "Closure",
        -11.962506409916703
      ],
      [
        "FiniteCoproducts",
        -11.962657111672335
      ],
      [
        "nUnitalNonAssoc",
        -11.962924466895245
      ],
      [
        "IsOpen",
        -11.963897364099708
      ],
      [
        "SDiff",
        -11.970442816079391
      ],
      [
        "w",
        -11.972724147657257
      ],
      [
        "instLo",
        -11.976140132817534
      ],
      [
        "SheafOf",
        -11.976835015359452
      ],
      [
        "toStarRing",
        -11.979290972418472
      ],
      [
        "Spectrum",
        -11.986187889837778
      ],
      [
        "Monomial",
        -11.986723017124092
      ],
      [
        "ZeroHypercover",
        -11.989569510620157
      ],
      [
        "ContMDiffMap",
        -11.991291724537241
      ],
      [
        "biprod",
        -11.994874420078112
      ],
      [
        "SqZero",
        -11.995200192540347
      ],
      [
        "Union",
        -11.998191002280407
      ],
      [
        "WithinAt",
        -12.00010242279429
      ],
      [
        "Triv",
        -12.002084351910263
      ],
      [
        "Decidable",
        -12.002866103827735
      ],
      [
        "instI",
        -12.003170862899474
      ],
      [
        "instNorm",
        -12.004545320263798
      ],
      [
        "MonoidHomCarrier",
        -12.00881087828786
      ],
      [
        "MulHom",
        -12.012671660076368
      ],
      [
        "measureSpace",
        -12.012695062309078
      ],
      [
        "len",
        -12.013047556602046
      ],
      [
        "UnitAdd",
        -12.01508489247052
      ],
      [
        "Z",
        -12.015813606840013
      ],
      [
        "adjoin",
        -12.01918183364539
      ],
      [
        "insert",
        -12.020539863024709
      ],
      [
        "union",
        -12.02079246210756
      ],
      [
        "Colimits",
        -12.023306574037015
      ],
      [
        "Q",
        -12.02496582959916
      ],
      [
        "limit",
        -12.02534733573625
      ],
      [
        "Cochain",
        -12.026500624351804
      ],
      [
        "ormula",
        -12.026688480335933
      ],
      [
        "oMin",
        -12.028569088918369
      ],
      [
        "dvd",
        -12.02883280563205
      ],
      [
        "eftHomologyData",
        -12.029535950165245
      ],
      [
        "LowerSe",
        -12.03225081727369
      ],
      [
        "mber",
        -12.034098578209248
      ],
      [
        "oid",
        -12.035024369786088
      ],
      [
        "Disjoint",
        -12.035165586214754
      ],
      [
        "toOrderTop",
        -12.037027013800847
      ],
      [
        "Comp",
        -12.037595644436571
      ],
      [
        "ZFSet",
        -12.040532261241886
      ],
      [
        "dist",
        -12.04076529064766
      ],
      [
        "iInf",
        -12.041780894148127
      ],
      [
        "atTop",
        -12.042108452870533
      ],
      [
        "HasZeroObject",
        -12.043971400999222
      ],
      [
        "Lift",
        -12.051022868687706
      ],
      [
        "neralLinearGroup",
        -12.05313402851937
      ],
      [
        "Insert",
        -12.053310238473625
      ],
      [
        "ofReal",
        -12.05698651840643
      ],
      [
        "instUnion",
        -12.059044381487633
      ],
      [
        "instInv",
        -12.061138239745649
      ],
      [
        "ContinuousLinear",
        -12.063263823911065
      ],
      [
        "mixed",
        -12.064756772179553
      ],
      [
        "ColimitsOfShape",
        -12.066527885119296
      ],
      [
        "In",
        -12.067590198628602
      ],
      [
        "primeCompl",
        -12.06868029208252
      ],
      [
        "initaryExtensive",
        -12.068892447362238
      ],
      [
        "eval",
        -12.070764670416455
      ],
      [
        "instInsert",
        -12.073294479210166
      ],
      [
        "Colex",
        -12.074067897121415
      ],
      [
        "asIdeal",
        -12.084838324573358
      ],
      [
        "instCompl",
        -12.092258866566358
      ],
      [
        "instStarRing",
        -12.092375923979656
      ],
      [
        "toLoc",
        -12.094760245997374
      ],
      [
        "chartedSpace",
        -12.099585019016436
      ],
      [
        "Associate",
        -12.100516818831352
      ],
      [
        "abs",
        -12.100992989276996
      ],
      [
        "Induced",
        -12.10155042855553
      ],
      [
        "sqrt",
        -12.102313910462643
      ],
      [
        "commGroup",
        -12.107439678601883
      ],
      [
        "match_1",
        -12.1127769458868
      ],
      [
        "Cotangent",
        -12.112822138432804
      ],
      [
        "impleFunc",
        -12.11317820945009
      ],
      [
        "sOfInclusions",
        -12.113535672652509
      ],
      [
        "AlgebraicClosure",
        -12.118469482584633
      ],
      [
        "u_",
        -12.123137922579035
      ],
      [
        "ToReal",
        -12.12925708638468
      ],
      [
        "monoidalCategory",
        -12.136898418156676
      ],
      [
        "addGroupIs",
        -12.13808305923299
      ],
      [
        "ightHomologyData",
        -12.138219290127413
      ],
      [
        "Snake",
        -12.140390091511971
      ],
      [
        "_3",
        -12.14407878961669
      ],
      [
        "J",
        -12.144097372084982
      ],
      [
        "Emb",
        -12.144429793811408
      ],
      [
        "IsOpenImmersion",
        -12.145068299426509
      ],
      [
        "HasShift",
        -12.146953745680982
      ],
      [
        "LaxFunctor",
        -12.15151763568609
      ],
      [
        "SemiRingCat",
        -12.157512934530484
      ],
      [
        "TM2",
        -12.161052566827374
      ],
      [
        "OfHasExplicit",
        -12.164293529116652
      ],
      [
        "MvP",
        -12.165932144485875
      ],
      [
        "Torus",
        -12.16606779615772
      ],
      [
        "Homogeneous",
        -12.168821125446968
      ],
      [
        "tCospanTransform",
        -12.16908851967548
      ],
      [
        "SmallObject",
        -12.171294824448601
      ],
      [
        "Point",
        -12.17192668874173
      ],
      [
        "toENorm",
        -12.179319503452101
      ],
      [
        "nil",
        -12.18080170547277
      ],
      [
        "instSingleton",
        -12.182643245835303
      ],
      [
        "integral",
        -12.186004843662474
      ],
      [
        "unc",
        -12.191215567976233
      ],
      [
        "volume",
        -12.19290821061861
      ],
      [
        "nput",
        -12.193701855358352
      ],
      [
        "group",
        -12.195993704461271
      ],
      [
        "Term",
        -12.1977201592161
      ],
      [
        "EnrichedCategory",
        -12.197837562453135
      ],
      [
        "toNat",
        -12.199651703406182
      ],
      [
        "etRel",
        -12.200582205135774
      ],
      [
        "Preserves",
        -12.200735838250749
      ],
      [
        "Degree",
        -12.201196614983662
      ],
      [
        "addZeroClass",
        -12.20800415139934
      ],
      [
        "Small",
        -12.208071075990686
      ],
      [
        "coprod",
        -12.20957816519455
      ],
      [
        "IsLocalization",
        -12.21171814755986
      ],
      [
        "instNonUnital",
        -12.2139162260919
      ],
      [
        "toAddSubmonoid",
        -12.214620022058039
      ],
      [
        "modelWithCorners",
        -12.21913869481035
      ],
      [
        "instP",
        -12.220012766284757
      ],
      [
        "IdemSemiring",
        -12.22103242732387
      ],
      [
        "ulOneClass",
        -12.225433822693947
      ],
      [
        "Shrink",
        -12.226832874440857
      ],
      [
        "nivLE",
        -12.229051034177392
      ],
      [
        "Character",
        -12.233654596190394
      ],
      [
        "sdiff",
        -12.237073794571637
      ],
      [
        "functorCategory",
        -12.237199266776372
      ],
      [
        "WalkingMulti",
        -12.238804394212519
      ],
      [
        "EDist",
        -12.239136540203372
      ],
      [
        "ocalizerMorphism",
        -12.240265783725977
      ],
      [
        "smul",
        -12.245187340444009
      ],
      [
        "isPrime",
        -12.245396004611898
      ],
      [
        "ulticospanIndex",
        -12.246884421557711
      ],
      [
        "ContinuousAffine",
        -12.2496805166825
      ],
      [
        "CancelMonoid",
        -12.250431908354997
      ],
      [
        "toUniformCon",
        -12.253660807256736
      ],
      [
        "Multicospan",
        -12.260244833642972
      ],
      [
        "ofAssociative",
        -12.261777772775053
      ],
      [
        "CoprodI",
        -12.262556706002853
      ],
      [
        "MonObj",
        -12.263746963399011
      ],
      [
        "proj",
        -12.272711716890502
      ],
      [
        "toContinuousMul",
        -12.274090532740058
      ],
      [
        "CommSemiRingCat",
        -12.274414419646323
      ],
      [
        "LaxMonoidal",
        -12.274493631317512
      ],
      [
        "OrderEmbedding",
        -12.275988603823613
      ],
      [
        "recoverage",
        -12.278913153233994
      ],
      [
        "Mat",
        -12.279335052057675
      ],
      [
        "completeLattice",
        -12.283477416413945
      ],
      [
        "Iio",
        -12.284985875333838
      ],
      [
        "toTopCat",
        -12.28682129129561
      ],
      [
        "IsClosed",
        -12.287273851109079
      ],
      [
        "ChainComplex",
        -12.288279428933084
      ],
      [
        "Mod",
        -12.292463360802671
      ],
      [
        "pointwise",
        -12.294255501848948
      ],
      [
        "SubtypeMem",
        -12.294672230928334
      ],
      [
        "DayConvolution",
        -12.295462165659622
      ],
      [
        "Pi",
        -12.295742726913545
      ],
      [
        "ing",
        -12.296781039336445
      ],
      [
        "Bicone",
        -12.29786261564711
      ],
      [
        "toLinearMap",
        -12.298144923977151
      ],
      [
        "ompleteSpace",
        -12.298510807561799
      ],
      [
        "omposableArrows",
        -12.299548346143006
      ],
      [
        "IsColimit",
        -12.299972807574349
      ],
      [
        "mersi",
        -12.300044858088366
      ],
      [
        "DerivedCategory",
        -12.30222646994596
      ],
      [
        "BraidedCategory",
        -12.304266459539953
      ],
      [
        "flip",
        -12.30734659562044
      ],
      [
        "EuclideanSpace",
        -12.308610866415384
      ],
      [
        "Strong",
        -12.308648612126628
      ],
      [
        "coeff",
        -12.309583090931518
      ],
      [
        "Composition",
        -12.310265538918362
      ],
      [
        "cospan",
        -12.312761000512221
      ],
      [
        "ePresentation",
        -12.314568035038569
      ],
      [
        "Pairwise",
        -12.314966349765779
      ],
      [
        "PresheafOf",
        -12.316629875045951
      ],
      [
        "TwoSided",
        -12.318201636550597
      ],
      [
        "LieRingModule",
        -12.321371435608512
      ],
      [
        "tensor",
        -12.323997527143685
      ],
      [
        "oherentTopology",
        -12.32447591030828
      ],
      [
        "symptotic",
        -12.324844056609624
      ],
      [
        "StarMul",
        -12.326034319824625
      ],
      [
        "IdealSheaf",
        -12.328237690080464
      ],
      [
        "ultispanIndex",
        -12.329279428030297
      ],
      [
        "pushout",
        -12.329462765905292
      ],
      [
        "onjAct",
        -12.329463182234736
      ],
      [
        "Interval",
        -12.330290380386224
      ],
      [
        "Ľ",
        -12.33801005818383
      ],
      [
        "_13",
        -12.340576926256556
      ],
      [
        "dirichlet",
        -12.340875706382551
      ],
      [
        "ContDiff",
        -12.34095886967063
      ],
      [
        "exp",
        -12.345155530166206
      ],
      [
        "Differentiable",
        -12.345318273888703
      ],
      [
        "Completely",
        -12.345785754524982
      ],
      [
        "Monotone",
        -12.346102497991886
      ],
      [
        "refl",
        -12.348139336686792
      ],
      [
        "Bimo",
        -12.350813056659014
      ],
      [
        "Code",
        -12.352957584746292
      ],
      [
        "Semigrp",
        -12.353233370792118
      ],
      [
        "IsLimit",
        -12.353812363381472
      ],
      [
        "tOfNatNat",
        -12.35407834205497
      ],
      [
        "ContinuousAdd",
        -12.355445757574131
      ],
      [
        "Integrable",
        -12.35551881429257
      ],
      [
        "irectLimit",
        -12.363860780791837
      ],
      [
        "ParallelPairHom",
        -12.365191795351564
      ],
      [
        "Homotopy",
        -12.365325324214385
      ],
      [
        "UniformOnFun",
        -12.369367931964348
      ],
      [
        "Stmt",
        -12.36970137293192
      ],
      [
        "yoneda",
        -12.37095320507385
      ],
      [
        "has",
        -12.371310057100347
      ],
      [
        "toC",
        -12.371525907547667
      ],
      [
        "Applicative",
        -12.378655537896165
      ],
      [
        "Preord",
        -12.380772754098516
      ],
      [
        "instCon",
        -12.381813039764513
      ],
      [
        "isTopological",
        -12.382034007835475
      ],
      [
        "IsUnit",
        -12.384378885777393
      ],
      [
        "RingHomComp",
        -12.384892125975934
      ],
      [
        "toNormedAdd",
        -12.387106454970628
      ],
      [
        "StrictMono",
        -12.39147953667209
      ],
      [
        "shape",
        -12.396675197096648
      ],
      [
        "K",
        -12.399508408199662
      ],
      [
        "extend",
        -12.400784298224394
      ],
      [
        "Proj",
        -12.40156512502756
      ],
      [
        "GradedMonoid",
        -12.402611877492106
      ],
      [
        "IsIso",
        -12.403196986091867
      ],
      [
        "instIsOrdered",
        -12.403609436494254
      ],
      [
        "walking",
        -12.403803363733157
      ],
      [
        "module'",
        -12.405167372741207
      ],
      [
        "Dense",
        -12.407870529527543
      ],
      [
        "Trivialization",
        -12.408763781575857
      ],
      [
        "demSemiring",
        -12.409497416235734
      ],
      [
        "Ioc",
        -12.411813605644216
      ],
      [
        "otangentSpace",
        -12.412101977214444
      ],
      [
        "RingedSpace",
        -12.412776375850534
      ],
      [
        "log",
        -12.419549677273128
      ],
      [
        "reSub",
        -12.421457138517656
      ],
      [
        "initeDimensional",
        -12.42284521237218
      ],
      [
        "Biproducts",
        -12.423930586134954
      ],
      [
        "instSProd",
        -12.424109836890484
      ],
      [
        "Local",
        -12.424566266212345
      ],
      [
        "AddSemigrp",
        -12.425579681014788
      ],
      [
        "zmultiples",
        -12.426608409275975
      ],
      [
        "ack",
        -12.426636017454516
      ],
      [
        "reeAddMonoid",
        -12.427422057550025
      ],
      [
        "Refl",
        -12.429079375544005
      ],
      [
        "finrank",
        -12.431509574102275
      ],
      [
        "OrderedFi",
        -12.435453407042957
      ],
      [
        "NonUnitalSemi",
        -12.436384432465854
      ],
      [
        "CauSeq",
        -12.443980482333462
      ],
      [
        "_auto",
        -12.444131286045799
      ],
      [
        "onAssocSemiring",
        -12.444342982047228
      ],
      [
        "Bornology",
        -12.444541561646172
      ],
      [
        "hasZeroMorphisms",
        -12.445051870667626
      ],
      [
        "instL",
        -12.446771296618174
      ],
      [
        "spectrum",
        -12.45119838798739
      ],
      [
        "vecCo",
        -12.451834010135027
      ],
      [
        "Fiber",
        -12.453355353976
      ],
      [
        "MonoidHomClass",
        -12.453516542644953
      ],
      [
        "eightOneSpectrum",
        -12.454071536442825
      ],
      [
        "Theorem",
        -12.45515495593867
      ],
      [
        "instCommMonoid",
        -12.457335746375461
      ],
      [
        "addGroup",
        -12.458680786264939
      ],
      [
        "asQuotient",
        -12.45998746611067
      ],
      [
        "_4",
        -12.461884422403141
      ],
      [
        "Summable",
        -12.462090519307152
      ],
      [
        "maximal",
        -12.46232007573461
      ],
      [
        "RelC",
        -12.46645065625155
      ],
      [
        "ulticospanShape",
        -12.467407946271571
      ],
      [
        "sOfShape",
        -12.467705259469689
      ],
      [
        "uniform",
        -12.468509695207239
      ],
      [
        "toRat",
        -12.469683360465648
      ],
      [
        "equiv",
        -12.469953305805035
      ],
      [
        "instDistrib",
        -12.471517774264541
      ],
      [
        "Gen",
        -12.471849602123397
      ],
      [
        "Center",
        -12.472550626460686
      ],
      [
        "associator",
        -12.472989029121166
      ],
      [
        "homology",
        -12.473603175283017
      ],
      [
        "preorder",
        -12.47385570977183
      ],
      [
        "noConfusion",
        -12.476584070221428
      ],
      [
        "Splitting",
        -12.476769625269233
      ],
      [
        "Diagram",
        -12.47813260873422
      ],
      [
        "Left",
        -12.48044300561007
      ],
      [
        "mk'",
        -12.48090287857691
      ],
      [
        "ntFract",
        -12.48147229758413
      ],
      [
        "HasLimitsOfShape",
        -12.482676741665976
      ],
      [
        "instSDiff",
        -12.483873258810654
      ],
      [
        "unit",
        -12.485179250653601
      ],
      [
        "BorelSpace",
        -12.487933006833845
      ],
      [
        "Meta",
        -12.490760480087332
      ],
      [
        "Resolution",
        -12.49158631243322
      ],
      [
        "Boolean",
        -12.491730302663107
      ],
      [
        "EquivClass",
        -12.494980871655514
      ],
      [
        "Â",
        -12.495789525929215
      ],
      [
        "Right",
        -12.496342848301225
      ],
      [
        "comm",
        -12.497153162920673
      ],
      [
        "ddOrd",
        -12.497707954459504
      ],
      [
        "Arithmetic",
        -12.501488149892658
      ],
      [
        "Alg",
        -12.50360907245253
      ],
      [
        "mClass",
        -12.505808648349195
      ],
      [
        "Subsingleton",
        -12.505973077469545
      ],
      [
        "iInter",
        -12.508067462545487
      ],
      [
        "odelCategory",
        -12.509036474907868
      ],
      [
        "Deg",
        -12.512414961841612
      ],
      [
        "StandardEtale",
        -12.513271476722425
      ],
      [
        "stalk",
        -12.514225672489648
      ],
      [
        "zariski",
        -12.517380066692
      ],
      [
        "ulSemiringAction",
        -12.51740959028218
      ],
      [
        "Se",
        -12.521034141592313
      ],
      [
        "instInner",
        -12.522016831104706
      ],
      [
        "_root",
        -12.522042340172753
      ],
      [
        "DecidablePred",
        -12.524967259740656
      ],
      [
        "AddCancel",
        -12.52554151810132
      ],
      [
        "castSucc",
        -12.528061058863962
      ],
      [
        "toNonUnitalSemi",
        -12.531470982993387
      ],
      [
        "smulCommClass_",
        -12.531789181643962
      ],
      [
        "Trans",
        -12.533803521940044
      ],
      [
        "BinaryBicone",
        -12.534617733588725
      ],
      [
        "instDiv",
        -12.53466300570755
      ],
      [
        "berg",
        -12.535291485838378
      ],
      [
        "ontinuousMapZero",
        -12.535545865727652
      ],
      [
        "Countable",
        -12.537377923789071
      ],
      [
        "ContMDiff",
        -12.538602571356762
      ],
      [
        "instCommGroup",
        -12.540094465506254
      ],
      [
        "at",
        -12.541888573506938
      ],
      [
        "Bdd",
        -12.543404910857916
      ],
      [
        "ZeroHom",
        -12.545232430820093
      ],
      [
        "NeZero",
        -12.548320453727545
      ],
      [
        "toLocally",
        -12.548357659602875
      ],
      [
        "ithVal",
        -12.551216315749148
      ],
      [
        "Convex",
        -12.552752471311095
      ],
      [
        "parationQuotient",
        -12.5532040194598
      ],
      [
        "Moore",
        -12.553975386739264
      ],
      [
        "LatticeHom",
        -12.556052421732751
      ],
      [
        "semigroup",
        -12.557762503317072
      ],
      [
        "OfIsScalarTower",
        -12.561507916079835
      ],
      [
        "none",
        -12.562583173242498
      ],
      [
        "EnrichedOrdinary",
        -12.564835847787586
      ],
      [
        "instIsDomain",
        -12.567472980015447
      ],
      [
        "yCompleteLattice",
        -12.569091392793554
      ],
      [
        "instInfSet",
        -12.57193033198038
      ],
      [
        "Carrier",
        -12.572392427644044
      ],
      [
        "ilen",
        -12.572465032454819
      ],
      [
        "CStarModule",
        -12.574169016327243
      ],
      [
        "MonoOver",
        -12.574402258368693
      ],
      [
        "ite",
        -12.57519785145399
      ],
      [
        "RelIso",
        -12.577729324670027
      ],
      [
        "lattice",
        -12.578634535251066
      ],
      [
        "creteCategoryAdd",
        -12.578823642039335
      ],
      [
        "VSub",
        -12.579928407852286
      ],
      [
        "monoid",
        -12.584877993365708
      ],
      [
        "Append",
        -12.585357086384082
      ],
      [
        "valuation",
        -12.586824145550342
      ],
      [
        "Isometric",
        -12.58940711459729
      ],
      [
        "Power",
        -12.591224955424387
      ],
      [
        "Sym",
        -12.591334891520521
      ],
      [
        "fromP",
        -12.59264443795789
      ],
      [
        "direct",
        -12.593649256784524
      ],
      [
        "Bilin",
        -12.594539681134378
      ],
      [
        "Pairing",
        -12.597538116383552
      ],
      [
        "rsive",
        -12.597695444962955
      ],
      [
        "Quot",
        -12.597696640655052
      ],
      [
        "kernel",
        -12.598474080998704
      ],
      [
        "edCommRing",
        -12.598531140087765
      ],
      [
        "StarAlgHom",
        -12.598699765613896
      ],
      [
        "Condensed",
        -12.600584308295321
      ],
      [
        "NormedA",
        -12.600977083223619
      ],
      [
        "_5",
        -12.602516699916603
      ],
      [
        "ord",
        -12.60353265241353
      ],
      [
        "nstSmallCategory",
        -12.60606517377689
      ],
      [
        "sUniformAddGroup",
        -12.606763988736159
      ],
      [
        "LeftMoves",
        -12.607721981822671
      ],
      [
        "toFinit",
        -12.611547610440553
      ],
      [
        "ath",
        -12.615446754436903
      ],
      [
        "whiskerRight",
        -12.621709125440777
      ],
      [
        "Valued",
        -12.62260213181162
      ],
      [
        "whiskerLeft",
        -12.62612036555304
      ],
      [
        "OrderTopology",
        -12.626378456987975
      ],
      [
        "root",
        -12.626569535512225
      ],
      [
        "Ici",
        -12.628973080912303
      ],
      [
        "Heyt",
        -12.630808827086186
      ],
      [
        "Ico",
        -12.630993061705583
      ],
      [
        "MeasurableEquiv",
        -12.631397893239976
      ],
      [
        "normedSpace",
        -12.631859632825769
      ],
      [
        "IsometryEquiv",
        -12.634625343686771
      ],
      [
        "IsTopologicalAdd",
        -12.635730898304338
      ],
      [
        "Regular",
        -12.641066297632523
      ],
      [
        "Perfection",
        -12.642392259630082
      ],
      [
        "ContinuousOn",
        -12.642425280764733
      ],
      [
        "toPartialEquiv",
        -12.643194997075707
      ],
      [
        "_6",
        -12.643501930109629
      ],
      [
        "reGaloisCategory",
        -12.64367768633225
      ],
      [
        "Bracket",
        -12.643715615691228
      ],
      [
        "whiskeringLeft",
        -12.644034016781596
      ],
      [
        "stDistribLattice",
        -12.644279396140206
      ],
      [
        "Solution",
        -12.647397993650404
      ],
      [
        "instMeasureSpace",
        -12.647958138848221
      ],
      [
        "T2Space",
        -12.650065419256373
      ],
      [
        "FreeMagma",
        -12.651241481367546
      ],
      [
        "AddRight",
        -12.652101798500214
      ],
      [
        "sNum",
        -12.652203341482611
      ],
      [
        "HasBinary",
        -12.657926677383518
      ],
      [
        "DomMulAct",
        -12.66147414920249
      ],
      [
        "SProd",
        -12.662097692403496
      ],
      [
        "swap",
        -12.665384680092842
      ],
      [
        "ContinuousMul",
        -12.670514786197543
      ],
      [
        "DiscreteQuotient",
        -12.677829815219358
      ],
      [
        "_7",
        -12.678219435605573
      ],
      [
        "core",
        -12.68149347738021
      ],
      [
        "cycles",
        -12.682265959606319
      ],
      [
        "WithCofibrations",
        -12.682845265573036
      ],
      [
        "Preregular",
        -12.684033421147719
      ],
      [
        "IsFiniteMeasure",
        -12.685043303129504
      ],
      [
        "ProfiniteAddGrp",
        -12.6862596243348
      ],
      [
        "toReal",
        -12.687921786851305
      ],
      [
        "Prim",
        -12.687924444013316
      ],
      [
        "codable",
        -12.6886446257021
      ],
      [
        "powers",
        -12.689174382238129
      ],
      [
        "pposite",
        -12.689836905829914
      ],
      [
        "ical",
        -12.690731987518399
      ],
      [
        "ation",
        -12.691093212618668
      ],
      [
        "rank",
        -12.691531247769113
      ],
      [
        "Factorization",
        -12.693506944615347
      ],
      [
        "RightMoves",
        -12.693523259234464
      ],
      [
        "selfAdjoint",
        -12.693860434363492
      ],
      [
        "ParallelPair",
        -12.694522618938162
      ],
      [
        "perm",
        -12.695623305402389
      ],
      [
        "Forall",
        -12.696598109216998
      ],
      [
        "OplaxFunctor",
        -12.697467672428555
      ],
      [
        "nstLargeCategory",
        -12.698831243504634
      ],
      [
        "IsCompact",
        -12.700477205842446
      ],
      [
        "CommShift",
        -12.702241665349124
      ],
      [
        "lintegral",
        -12.703891408622352
      ],
      [
        "ZPow",
        -12.704203426236319
      ],
      [
        "instDivisionRing",
        -12.705083628163333
      ],
      [
        "onUnitalSemiring",
        -12.706736146477567
      ],
      [
        "MulChar",
        -12.708592353575476
      ],
      [
        "ronglyMeasurable",
        -12.710800839391052
      ],
      [
        "OfFinit",
        -12.710945218671501
      ],
      [
        "ball",
        -12.71268434510432
      ],
      [
        "PowerBasis",
        -12.713549591384213
      ],
      [
        "LaurentSeries",
        -12.715573330256127
      ],
      [
        "cokernel",
        -12.716859503177968
      ],
      [
        "SmallCategory",
        -12.720853816505581
      ],
      [
        "li",
        -12.724147672010137
      ],
      [
        "instStar",
        -12.72424003125677
      ],
      [
        "source",
        -12.726623213168658
      ],
      [
        "fNat",
        -12.726665678158078
      ],
      [
        "Archimedean",
        -12.726889985761133
      ],
      [
        "IsOrderedCancel",
        -12.727068818569705
      ],
      [
        "IntCast",
        -12.728106460136889
      ],
      [
        "FinB",
        -12.728430353075765
      ],
      [
        "FiberBundle",
        -12.728783294061213
      ],
      [
        "toPs",
        -12.729575307178912
      ],
      [
        "mpactlySupported",
        -12.72964135523766
      ],
      [
        "instCategoryC",
        -12.730943207109764
      ],
      [
        "OneHypercover",
        -12.731179882991672
      ],
      [
        "RingQuot",
        -12.731980412691895
      ],
      [
        "stLat",
        -12.732289117609707
      ],
      [
        "orgetEnrichment",
        -12.732699479157315
      ],
      [
        "instPrecoherent",
        -12.733846683681783
      ],
      [
        "unitary",
        -12.73654445554088
      ],
      [
        "Coxeter",
        -12.738542630880824
      ],
      [
        "toHopfAlgebra",
        -12.739620522122912
      ],
      [
        "CommMagma",
        -12.740724001968584
      ],
      [
        "Computa",
        -12.742387572065965
      ],
      [
        "toNN",
        -12.74289750335003
      ],
      [
        "direction",
        -12.743143933702274
      ],
      [
        "filter",
        -12.747501164632903
      ],
      [
        "CentroidHom",
        -12.747537964042298
      ],
      [
        "sMaximal",
        -12.749353353138044
      ],
      [
        "degree",
        -12.749869132649476
      ],
      [
        "Types",
        -12.7507283285872
      ],
      [
        "Jacobian",
        -12.751421855755572
      ],
      [
        "Based",
        -12.755053126328612
      ],
      [
        "ofibrantObject",
        -12.756286077019688
      ],
      [
        "ion",
        -12.760765828884727
      ],
      [
        "toPseudoE",
        -12.764209172618395
      ],
      [
        "small",
        -12.765953814759937
      ],
      [
        "WellOrder",
        -12.767436198148499
      ],
      [
        "ltrafilter",
        -12.769315648867886
      ],
      [
        "´",
        -12.769432984288226
      ],
      [
        "monoidal",
        -12.774516080699522
      ],
      [
        "Partition",
        -12.774536017359264
      ],
      [
        "HasHomology",
        -12.775545891368662
      ],
      [
        "StrictlyUnitary",
        -12.777519691159691
      ],
      [
        "Ioi",
        -12.781414197354986
      ],
      [
        "elSeries",
        -12.781559684668215
      ],
      [
        "Mop",
        -12.786913174747468
      ],
      [
        "mixedSpace",
        -12.788148112457892
      ],
      [
        "ofHom",
        -12.790369543074625
      ],
      [
        "Pseudo",
        -12.791617808432367
      ],
      [
        "MagmaCat",
        -12.792712217767704
      ],
      [
        "opcycles",
        -12.79344721927437
      ],
      [
        "StarModule",
        -12.793959402660988
      ],
      [
        "Restricted",
        -12.797271677843124
      ],
      [
        "toSubsemiring",
        -12.797926030909926
      ],
      [
        "AddMagmaCat",
        -12.799631775545407
      ],
      [
        "index",
        -12.79974240150503
      ],
      [
        "Operator",
        -12.801225649717258
      ],
      [
        "commRingCat",
        -12.802708130596638
      ],
      [
        "Invertible",
        -12.802934655606503
      ],
      [
        "IsFractionRing",
        -12.803970368622805
      ],
      [
        "LocalizationMa",
        -12.804181583952051
      ],
      [
        "FreeAddMagma",
        -12.806583506978646
      ],
      [
        "FinL",
        -12.806979881568205
      ],
      [
        "oEMetricSpace",
        -12.807251384949375
      ],
      [
        "sFG",
        -12.807317841850704
      ],
      [
        "OpenNormal",
        -12.808056146868402
      ],
      [
        "instInhabited",
        -12.808942336594765
      ],
      [
        "Encoding",
        -12.808988242011818
      ],
      [
        "Dom",
        -12.809323213664655
      ],
      [
        "WithFibrations",
        -12.811406800455913
      ],
      [
        "FiniteMeasure",
        -12.812809257898728
      ],
      [
        "Bipointed",
        -12.818587628381554
      ],
      [
        "Germ",
        -12.819465087075683
      ],
      [
        "ValueGroup",
        -12.819771475186762
      ],
      [
        "oMetricSpace",
        -12.820091080459827
      ],
      [
        "normedRing",
        -12.820821152160885
      ],
      [
        "Kan",
        -12.822069574811255
      ],
      [
        "OneHom",
        -12.82381612142719
      ],
      [
        "has_binary_",
        -12.824730459492425
      ],
      [
        "Pullbacks",
        -12.824910025137495
      ],
      [
        "_12",
        -12.825004031256787
      ],
      [
        "Matr",
        -12.828173872078205
      ],
      [
        "toIsOrdered",
        -12.82822967815355
      ],
      [
        "instNegInt",
        -12.829001330435728
      ],
      [
        "subtype",
        -12.830573800967816
      ],
      [
        "quotient",
        -12.830783268720744
      ],
      [
        "ddCommGroup",
        -12.832050392513835
      ],
      [
        "sSup",
        -12.834174873678228
      ],
      [
        "CompactSpace",
        -12.834373064907568
      ],
      [
        "instPreregular",
        -12.8348198305201
      ],
      [
        "MulOfFintypeOf",
        -12.835303020631564
      ],
      [
        "Laurent",
        -12.83665432672622
      ],
      [
        "edAddCommMonoid",
        -12.836791833840904
      ],
      [
        "q",
        -12.83768440255653
      ],
      [
        "toAddAction",
        -12.838275667420628
      ],
      [
        "stdSimplex",
        -12.839675177905772
      ],
      [
        "System",
        -12.846355947964081
      ],
      [
        "Y",
        -12.846891626673838
      ],
      [
        "Dyck",
        -12.847171061448162
      ],
      [
        "epresentation",
        -12.847226800089475
      ],
      [
        "AddNat",
        -12.848819802959834
      ],
      [
        "Inner",
        -12.849298568218062
      ],
      [
        "_auto_1",
        -12.850157388860431
      ],
      [
        "Pure",
        -12.850789958055774
      ],
      [
        "of",
        -12.855192950760117
      ],
      [
        "ShiftOppositeIn",
        -12.856941913507598
      ],
      [
        "nnnorm",
        -12.858920531469167
      ],
      [
        "prop",
        -12.8598041204602
      ],
      [
        "OneClass",
        -12.860177746953351
      ],
      [
        "Indep",
        -12.860737126494902
      ],
      [
        "Open",
        -12.866267455340775
      ],
      [
        "Maximal",
        -12.869523694560332
      ],
      [
        "instMin",
        -12.87037209846207
      ],
      [
        "Parser",
        -12.87114314384075
      ],
      [
        "NonUnitalRingHom",
        -12.873776835499573
      ],
      [
        "Enriched",
        -12.874014199693393
      ],
      [
        "irichlet",
        -12.876708648552611
      ],
      [
        "tinuousLinearMap",
        -12.878734958186119
      ],
      [
        "Elements",
        -12.880356800201403
      ],
      [
        "Skeleton",
        -12.881764188087143
      ],
      [
        "enCo",
        -12.884985750812033
      ],
      [
        "MapSupportedIn",
        -12.887683449455851
      ],
      [
        "AtPrime",
        -12.888658919247334
      ],
      [
        "ContinuousStar",
        -12.88912139644756
      ],
      [
        "LeftFraction",
        -12.889549788653468
      ],
      [
        "Lp",
        -12.893584014947127
      ],
      [
        "closedBall",
        -12.894238703112148
      ],
      [
        "Bimon",
        -12.895565598962595
      ],
      [
        "LocalizedModule",
        -12.89613422937158
      ],
      [
        "isOrdered",
        -12.8965231883551
      ],
      [
        "instSeminormed",
        -12.900844701729575
      ],
      [
        "Ma",
        -12.90466754400223
      ],
      [
        "CommSemigroup",
        -12.904889401803533
      ],
      [
        "Sphere",
        -12.904984782231887
      ],
      [
        "Descr",
        -12.905744488277396
      ],
      [
        "hasColimits_",
        -12.906523281023233
      ],
      [
        "Commute",
        -12.910072466149579
      ],
      [
        "degreeLT",
        -12.91126157504874
      ],
      [
        "Epi",
        -12.911741691497202
      ],
      [
        "ContinuousSMul",
        -12.912838103966834
      ],
      [
        "SemilatInf",
        -12.914078358445684
      ],
      [
        "diagram",
        -12.915248675136093
      ],
      [
        "LimitsOfShape",
        -12.915663573595054
      ],
      [
        "Monic",
        -12.919266116172803
      ],
      [
        "AlgHomClass",
        -12.919815224516393
      ],
      [
        "integer",
        -12.920447960672366
      ],
      [
        "AddLeftMono",
        -12.920531546742353
      ],
      [
        "restrictScalars",
        -12.9205475492594
      ],
      [
        "sInf",
        -12.921827635977667
      ],
      [
        "inner",
        -12.922215022456106
      ],
      [
        "AlgCl",
        -12.924702441939196
      ],
      [
        "terminal",
        -12.925407129357247
      ],
      [
        "Products",
        -12.925728448432737
      ],
      [
        "isMono",
        -12.930003550323049
      ],
      [
        "angle",
        -12.931972496124775
      ],
      [
        "nAssoc",
        -12.933403804164278
      ],
      [
        "SemilatSupCat",
        -12.936280438268536
      ],
      [
        "Away",
        -12.937772238045756
      ],
      [
        "Refine",
        -12.93796945772521
      ],
      [
        "Tree",
        -12.938528695389802
      ],
      [
        "ormedAddGroupHom",
        -12.94016572306353
      ],
      [
        "Not",
        -12.942160238191573
      ],
      [
        "PushoutI",
        -12.942472917195065
      ],
      [
        "FirstO",
        -12.943451760186777
      ],
      [
        "convolution",
        -12.944900229247843
      ],
      [
        "Torsor",
        -12.946772537719916
      ],
      [
        "king",
        -12.947126262570237
      ],
      [
        "MulActionHom",
        -12.947186974043209
      ],
      [
        "SplittingField",
        -12.948670930046251
      ],
      [
        "sColimitOfHas",
        -12.950774070607212
      ],
      [
        "iltration",
        -12.95080911767096
      ],
      [
        "WeakEquivalences",
        -12.951169396247645
      ],
      [
        "BoolRing",
        -12.95345363382173
      ],
      [
        "HomologyData",
        -12.954823930995467
      ],
      [
        "rmGroup",
        -12.957572946461434
      ],
      [
        "Cont",
        -12.959105841958312
      ],
      [
        "LeftResolution",
        -12.964017974590135
      ],
      [
        "Subm",
        -12.966500453527713
      ],
      [
        "toNonAssoc",
        -12.967513917024604
      ],
      [
        "CancelSemigroup",
        -12.967576490587955
      ],
      [
        "Calculus",
        -12.970021990708467
      ],
      [
        "Nobeling",
        -12.970033419491529
      ],
      [
        "noidalLeftAction",
        -12.97145172716504
      ],
      [
        "rder",
        -12.971605709779926
      ],
      [
        "Oplax",
        -12.971743418661433
      ],
      [
        "allyCompleteL",
        -12.972469517119336
      ],
      [
        "Partial",
        -12.973184486426806
      ],
      [
        "root_",
        -12.97620541308677
      ],
      [
        "Pell",
        -12.97642510090593
      ],
      [
        "hasLimit",
        -12.977482185829857
      ],
      [
        "_discrete",
        -12.980188970864166
      ],
      [
        "CharZero",
        -12.981343879402354
      ],
      [
        "NonUnitalAlgHom",
        -12.982695502629248
      ],
      [
        "DiscrTree",
        -12.983164299219723
      ],
      [
        "Graded",
        -12.983704973868221
      ],
      [
        "DecidableRel",
        -12.987930308606195
      ],
      [
        "Loc",
        -12.990146011785626
      ],
      [
        "HasWeakSheafify",
        -12.991811491226924
      ],
      [
        "RestrictScalars",
        -12.992496807452326
      ],
      [
        "GaloisIn",
        -12.992673743527511
      ],
      [
        "instF",
        -12.996163306915513
      ],
      [
        "fixingSubgroup",
        -12.996293178144008
      ],
      [
        "vadd",
        -12.996919853602638
      ],
      [
        "Value",
        -12.998482917045305
      ],
      [
        "categoryWith",
        -13.000641594292798
      ],
      [
        "over",
        -13.001548085637637
      ],
      [
        "AffineIsometry",
        -13.00240933192973
      ],
      [
        "CStar",
        -13.004333251689307
      ],
      [
        "instOrderTop",
        -13.00512585893406
      ],
      [
        "instIntCast",
        -13.008891048774318
      ],
      [
        "AddAct",
        -13.010514670552533
      ],
      [
        "Locally",
        -13.012051375452822
      ],
      [
        "oundedLatticeHom",
        -13.016526578465244
      ],
      [
        "principal",
        -13.017775371435327
      ],
      [
        "reeGroupoid",
        -13.019402749442474
      ],
      [
        "instSizeOf",
        -13.019811335276106
      ],
      [
        "ZSMul",
        -13.020274188598968
      ],
      [
        "ingleFunctors",
        -13.02106834841289
      ],
      [
        "Faithful",
        -13.023433443607743
      ],
      [
        "InvolutiveNeg",
        -13.024774273881732
      ],
      [
        "free",
        -13.025554086629608
      ],
      [
        "sub",
        -13.026975731434307
      ],
      [
        "instMonoidal",
        -13.02731753151346
      ],
      [
        "uncurry",
        -13.027462403247355
      ],
      [
        "Di",
        -13.027851797862267
      ],
      [
        "Antitone",
        -13.028316855484457
      ],
      [
        "tsum",
        -13.032196334623102
      ],
      [
        "instSmall",
        -13.033467262323125
      ],
      [
        "Default",
        -13.033558637300063
      ],
      [
        "true",
        -13.033910355674323
      ],
      [
        "Relation",
        -13.043895606034976
      ],
      [
        "orbitRel",
        -13.04660171691156
      ],
      [
        "default",
        -13.054281434807002
      ],
      [
        "toHom",
        -13.055569986714087
      ],
      [
        "_8",
        -13.055919436317085
      ],
      [
        "homGroup",
        -13.056359720819753
      ],
      [
        "inclusion",
        -13.056754848734638
      ],
      [
        "CategoryOver",
        -13.05734650191142
      ],
      [
        "Bijective",
        -13.057391755152214
      ],
      [
        "MonoidalClosed",
        -13.059491227054068
      ],
      [
        "FunctorObj",
        -13.061903998395294
      ],
      [
        "IsBigO",
        -13.063053547296054
      ],
      [
        "edist",
        -13.065337861355864
      ],
      [
        "metricSpace",
        -13.06588143809378
      ],
      [
        "Exact",
        -13.066647435800945
      ],
      [
        "TwoP",
        -13.069432173599068
      ],
      [
        "desc",
        -13.072357838464946
      ],
      [
        "ally",
        -13.073082264879414
      ],
      [
        "toRingHom",
        -13.073399619535149
      ],
      [
        "hasLimitsOfShape",
        -13.07577958621091
      ],
      [
        "homRe",
        -13.076078483410708
      ],
      [
        "Expr",
        -13.076649519903452
      ],
      [
        "hasHomology",
        -13.079857062736846
      ],
      [
        "FiniteOrder",
        -13.082114087407742
      ],
      [
        "Base",
        -13.08222400614168
      ],
      [
        "termediateField",
        -13.082367680859209
      ],
      [
        "haar",
        -13.087670308085318
      ],
      [
        "inearOrder",
        -13.088704314248336
      ],
      [
        "IsStableUnder",
        -13.09306764732758
      ],
      [
        "Non",
        -13.093388562018978
      ],
      [
        "algebra'",
        -13.09728840347783
      ],
      [
        "cylinder",
        -13.098648928937166
      ],
      [
        "seminormed",
        -13.10025998470693
      ],
      [
        "lexDisc",
        -13.100327869188629
      ],
      [
        "Irreducible",
        -13.101061822429237
      ],
      [
        "FGModuleCat",
        -13.103806648133858
      ],
      [
        "Infinite",
        -13.103978780710236
      ],
      [
        "HasColimit",
        -13.104666293225167
      ],
      [
        "Clopen",
        -13.105491734334619
      ],
      [
        "HasBiproduct",
        -13.105608837751735
      ],
      [
        "starRingE",
        -13.106917489520104
      ],
      [
        "setoid",
        -13.107402785342359
      ],
      [
        "vsub",
        -13.107482349079348
      ],
      [
        "ennreal",
        -13.107911609391252
      ],
      [
        "Galois",
        -13.111727226341475
      ],
      [
        "instMax",
        -13.112002598088388
      ],
      [
        "Projectivization",
        -13.11304285684946
      ],
      [
        "AddGroupSeminorm",
        -13.113118708042837
      ],
      [
        "ang",
        -13.114287503676822
      ],
      [
        "Lawful",
        -13.114583193728356
      ],
      [
        "unmop",
        -13.118477970500507
      ],
      [
        "Ore",
        -13.119389529108116
      ],
      [
        "PullbacksT",
        -13.122565608944642
      ],
      [
        "instLocally",
        -13.126954602046958
      ],
      [
        "IsIntegral",
        -13.126968238091749
      ],
      [
        "iterate",
        -13.12756588709222
      ],
      [
        "instHasShift",
        -13.127785358829481
      ],
      [
        "Dihedral",
        -13.12829405373245
      ],
      [
        "VectorBundle",
        -13.128544365951925
      ],
      [
        "instMulAction",
        -13.131885339210182
      ],
      [
        "Fork",
        -13.132183452995914
      ],
      [
        "Colimit",
        -13.1324514727179
      ],
      [
        "Factorisation",
        -13.132875643832513
      ],
      [
        "shift",
        -13.134916910016527
      ],
      [
        "toScheme",
        -13.13509576649697
      ],
      [
        "OppositeShift",
        -13.136008749866715
      ],
      [
        "IsPrime",
        -13.13783212622199
      ],
      [
        "PseudoEMetric",
        -13.140102873641094
      ],
      [
        "Symmetric",
        -13.143226595685
      ],
      [
        "tensorHom",
        -13.145427657189792
      ],
      [
        "ifibrantObject",
        -13.148501633325175
      ],
      [
        "ightCancelMonoid",
        -13.150872215093223
      ],
      [
        "CatEnriched",
        -13.150984468862994
      ],
      [
        "vQP",
        -13.151016106837183
      ],
      [
        "Abs",
        -13.151585916410848
      ],
      [
        "nstNeZeroNatHAdd",
        -13.153801416253467
      ],
      [
        "ofNNReal",
        -13.15393127933189
      ],
      [
        "opEquiv",
        -13.155591758603062
      ],
      [
        "cos",
        -13.156421076080726
      ],
      [
        "rmedCommRing",
        -13.158097805776494
      ],
      [
        "locallyFinsupp",
        -13.159553346956454
      ],
      [
        "Ge",
        -13.159578862581498
      ],
      [
        "rightOp",
        -13.160065884242094
      ],
      [
        "al",
        -13.164994387565491
      ],
      [
        "choose",
        -13.16542404739926
      ],
      [
        "CardinalFiltered",
        -13.166866274352671
      ],
      [
        "toLinearOrder",
        -13.167970411940903
      ],
      [
        "fiber",
        -13.168429428229643
      ],
      [
        "ith",
        -13.170299705290109
      ],
      [
        "Realize",
        -13.170498909689385
      ],
      [
        "bind",
        -13.17277808029534
      ],
      [
        "reeAddGroup",
        -13.173276024316381
      ],
      [
        "points",
        -13.175122697228009
      ],
      [
        "FilterBasis",
        -13.179474186767708
      ],
      [
        "ingReflexivePair",
        -13.179955484497963
      ],
      [
        "toEquiv",
        -13.182239333204365
      ],
      [
        "enumerable",
        -13.182395672864445
      ],
      [
        "OplaxMonoidal",
        -13.184020534007999
      ],
      [
        "Cocycle",
        -13.185815272329013
      ],
      [
        "«",
        -13.189250875481086
      ],
      [
        "»",
        -13.189250875481086
      ],
      [
        "Rank",
        -13.189277949700248
      ],
      [
        "counit",
        -13.191519941803215
      ],
      [
        "deriv",
        -13.191887220236291
      ],
      [
        "rrows",
        -13.192362655328681
      ],
      [
        "SupHom",
        -13.192402791941515
      ],
      [
        "leftUnitor",
        -13.198127116957174
      ],
      [
        "retrivialization",
        -13.198292929656958
      ],
      [
        "addMonoidal",
        -13.198313761599453
      ],
      [
        "has_",
        -13.200053020366568
      ],
      [
        "domain",
        -13.20067757005897
      ],
      [
        "LeftKanExtension",
        -13.203367198979333
      ],
      [
        "SuccOrder",
        -13.204479958501402
      ],
      [
        "elow",
        -13.205217656296922
      ],
      [
        "continuousSMul",
        -13.205657777830599
      ],
      [
        "Representable",
        -13.20686507870889
      ],
      [
        "Coprime",
        -13.20708754162401
      ],
      [
        "sPrimitiveRoot",
        -13.208831014926849
      ],
      [
        "Even",
        -13.210296461473405
      ],
      [
        "IsManifold",
        -13.210501220897193
      ],
      [
        "iling",
        -13.212977122299467
      ],
      [
        "Orient",
        -13.213788537153174
      ],
      [
        "Split",
        -13.218515757143273
      ],
      [
        "type",
        -13.218744248619439
      ],
      [
        "affineOpens",
        -13.220127161681917
      ],
      [
        "Full",
        -13.220685160117409
      ],
      [
        "AbsoluteValue",
        -13.222452895592745
      ],
      [
        "curry",
        -13.223661294155033
      ],
      [
        "equalizer",
        -13.224343308581663
      ],
      [
        "sigmaObj",
        -13.225119214444604
      ],
      [
        "addMonoid",
        -13.22523295386275
      ],
      [
        "multicospan",
        -13.226000566803004
      ],
      [
        "sIdempotentElem",
        -13.2262995795382
      ],
      [
        "hasZeroObject",
        -13.227704574952654
      ],
      [
        "SMulWithZero",
        -13.227726064006156
      ],
      [
        "rightUnitor",
        -13.227744534829938
      ],
      [
        "AdicComplet",
        -13.228472529359507
      ],
      [
        "instBialgebra",
        -13.228666450271765
      ],
      [
        "isAlgebra",
        -13.229175972043205
      ],
      [
        "count",
        -13.229407673684104
      ],
      [
        "BialgHom",
        -13.231496839703606
      ],
      [
        "ConvergenceC",
        -13.23160940270499
      ],
      [
        "sections",
        -13.231727448624747
      ],
      [
        "roof",
        -13.233402782140022
      ],
      [
        "alObject",
        -13.2336380088412
      ],
      [
        "aeval",
        -13.233927622815337
      ],
      [
        "pure",
        -13.234503256462157
      ],
      [
        "_10",
        -13.235059709085146
      ],
      [
        "PMF",
        -13.23833048880585
      ],
      [
        "HasCokernel",
        -13.239286530545602
      ],
      [
        "uniformity",
        -13.24012989184798
      ],
      [
        "Braided",
        -13.240939711948958
      ],
      [
        "instPowNat",
        -13.24622075475969
      ],
      [
        "underlying",
        -13.246547619330274
      ],
      [
        "CoalgHom",
        -13.24797819436575
      ],
      [
        "hasLe",
        -13.24862655118076
      ],
      [
        "DiscreteT",
        -13.248969800009107
      ],
      [
        "Localized",
        -13.249161469404505
      ],
      [
        "ividedPowers",
        -13.24944571565053
      ],
      [
        "bility",
        -13.249536621205591
      ],
      [
        "instAddC",
        -13.251310847817571
      ],
      [
        "trivial",
        -13.251338005078898
      ],
      [
        "ContinuousA",
        -13.25257690921795
      ],
      [
        "update",
        -13.254632082835808
      ],
      [
        "racket",
        -13.255067728697515
      ],
      [
        "head",
        -13.255222742944646
      ],
      [
        "Presented",
        -13.255678543084006
      ],
      [
        "zpowers",
        -13.257002702536363
      ],
      [
        "Coalg",
        -13.258923924323652
      ],
      [
        "gcd",
        -13.259735214875914
      ],
      [
        "IsEmpty",
        -13.260023704828964
      ],
      [
        "nstFunLikeForall",
        -13.260040821739707
      ],
      [
        "Step",
        -13.260112584611766
      ],
      [
        "HImp",
        -13.260501556664943
      ],
      [
        "IsLocally",
        -13.263195764221898
      ],
      [
        "toDual",
        -13.26484856120138
      ],
      [
        "relatively",
        -13.264986205880813
      ],
      [
        "Range",
        -13.265177755598117
      ],
      [
        "nePoint",
        -13.265413183199774
      ],
      [
        "aceMap",
        -13.265932821250297
      ],
      [
        "hasForgetTo",
        -13.266043842693389
      ],
      [
        "sBoolAlg",
        -13.27000138083654
      ],
      [
        "Comput",
        -13.273734490743358
      ],
      [
        "ModEq",
        -13.276261038478754
      ],
      [
        "eqToHom",
        -13.27630488374289
      ],
      [
        "ModuleSubtypeMem",
        -13.276326824241153
      ],
      [
        "Total",
        -13.278070203746399
      ],
      [
        "verts",
        -13.28100342686784
      ],
      [
        "affineSpan",
        -13.281592634446024
      ],
      [
        "grothendieck",
        -13.281907016895396
      ],
      [
        "lieAlgebra",
        -13.286558937982079
      ],
      [
        "ndofunctor",
        -13.287749546415217
      ],
      [
        "LucasLehmer",
        -13.288284043826499
      ],
      [
        "Perfect",
        -13.289391226442664
      ],
      [
        "onoFactorisation",
        -13.289565424483222
      ],
      [
        "instDFunLike",
        -13.292525244355712
      ],
      [
        "IsTorsionFree",
        -13.292970552055264
      ],
      [
        "ZNum",
        -13.293680752140466
      ],
      [
        "ullbackShift",
        -13.296516074434578
      ],
      [
        "instHAppend",
        -13.297217731420357
      ],
      [
        "OfHas",
        -13.297630541427578
      ],
      [
        "HAppend",
        -13.29826605411491
      ],
      [
        "hMod",
        -13.298928074423255
      ],
      [
        "PFun",
        -13.30019953025351
      ],
      [
        "sColimitsOfShape",
        -13.301063735829032
      ],
      [
        "ultilinearSeries",
        -13.301806172591627
      ],
      [
        "PseudoE",
        -13.304764621729475
      ],
      [
        "sup",
        -13.304944172266056
      ],
      [
        "Cyclotomic",
        -13.305869950212397
      ],
      [
        "toPre",
        -13.3063723076095
      ],
      [
        "ZeroMorphisms",
        -13.30697239321688
      ],
      [
        "AddLeftCancel",
        -13.308125955881588
      ],
      [
        "Game",
        -13.308928968297671
      ],
      [
        "Hull",
        -13.309650459927052
      ],
      [
        "inf",
        -13.310482935933038
      ],
      [
        "Cauchy",
        -13.311208970273478
      ],
      [
        "instAppend",
        -13.31306612649949
      ],
      [
        "curriedTensor",
        -13.314813763880741
      ],
      [
        "instAlgebraOf",
        -13.31580230758137
      ],
      [
        "TestFunction",
        -13.316430575949543
      ],
      [
        "µ",
        -13.317855909840583
      ],
      [
        "Aut",
        -13.322496471145277
      ],
      [
        "GrpObj",
        -13.322625740038786
      ],
      [
        "HasPullback",
        -13.324283860113617
      ],
      [
        "StarAlgEquiv",
        -13.324612725958147
      ],
      [
        "TM1",
        -13.328112241926931
      ],
      [
        "Young",
        -13.32935855314609
      ],
      [
        "Impl",
        -13.329907178404884
      ],
      [
        "target",
        -13.33030953672724
      ],
      [
        "BaseChange",
        -13.330364115365144
      ],
      [
        "eTil",
        -13.330495015222251
      ],
      [
        "FiniteColimits",
        -13.330988767974095
      ],
      [
        "Two",
        -13.33173988339992
      ],
      [
        "minpoly",
        -13.334052476919762
      ],
      [
        "OfIsTopological",
        -13.334715605272043
      ],
      [
        "RatCast",
        -13.334973437704338
      ],
      [
        "Decomposition",
        -13.335224006896588
      ],
      [
        "toRightCancel",
        -13.336233387693465
      ],
      [
        "rootsOfUnity",
        -13.336808475996651
      ],
      [
        "NNDist",
        -13.337323663534972
      ],
      [
        "nterior",
        -13.337601096290264
      ],
      [
        "piObj",
        -13.338106478069818
      ],
      [
        "ecEmpty",
        -13.341839408464686
      ],
      [
        "MapsTo",
        -13.343936142111342
      ],
      [
        "eminormedRing",
        -13.34405752986883
      ],
      [
        "indicator",
        -13.34855760186168
      ],
      [
        "IsFiltered",
        -13.349539376756702
      ],
      [
        "IsUniform",
        -13.351541078951781
      ],
      [
        "instNormedAdd",
        -13.351626715598002
      ],
      [
        "HasSheafify",
        -13.354178785064043
      ],
      [
        "FilteredColimits",
        -13.354782036758786
      ],
      [
        "Alternating",
        -13.354991946753415
      ],
      [
        "Fla",
        -13.355104235509717
      ],
      [
        "toMonoidHom",
        -13.355663237707535
      ],
      [
        "Triangulated",
        -13.355732420227628
      ],
      [
        "hasFinite",
        -13.356001986498939
      ],
      [
        "uniformSpace",
        -13.356387125797049
      ],
      [
        "RingHomCarrier",
        -13.358427908425163
      ],
      [
        "ibrantObject",
        -13.358638979007939
      ],
      [
        "__",
        -13.359302343452404
      ],
      [
        "nstIsTopological",
        -13.35957285028864
      ],
      [
        "Divisible",
        -13.36019871916913
      ],
      [
        "toMon",
        -13.3603053872104
      ],
      [
        "LeftCancelMonoid",
        -13.36211422535396
      ],
      [
        "Strict",
        -13.362277327616312
      ],
      [
        ";",
        -13.36318529932327
      ],
      [
        "instMod",
        -13.364010736117839
      ],
      [
        "Invariant",
        -13.364494222395791
      ],
      [
        "graph",
        -13.364824772867394
      ],
      [
        "Measur",
        -13.365631584027323
      ],
      [
        "Pic",
        -13.367076242503966
      ],
      [
        "MDifferentiable",
        -13.36720474013333
      ],
      [
        "coyoneda",
        -13.36753816694577
      ],
      [
        "IsRegular",
        -13.367695294918079
      ],
      [
        "opical",
        -13.368092522388743
      ],
      [
        "IsWellOrder",
        -13.36814186853822
      ],
      [
        "instBoundedOrder",
        -13.368991934154252
      ],
      [
        "Bifunctor",
        -13.370072243845605
      ],
      [
        "orthogonal",
        -13.370821157352271
      ],
      [
        "WellFoundedLT",
        -13.372246454131119
      ],
      [
        "WeakDual",
        -13.3734575350766
      ],
      [
        "fact_one_le_t",
        -13.373969309194617
      ],
      [
        "_private",
        -13.374391997014126
      ],
      [
        "OfElements",
        -13.374816483405736
      ],
      [
        "WithCon",
        -13.376391439609396
      ],
      [
        "fin",
        -13.38140251569945
      ],
      [
        "_9",
        -13.382536383979945
      ],
      [
        "xterior",
        -13.382763854592767
      ],
      [
        "NoZeroDivisors",
        -13.383326023778029
      ],
      [
        "SigmaFinite",
        -13.383627939215835
      ],
      [
        "CharP",
        -13.383642148472735
      ],
      [
        "toFinset",
        -13.38509478535012
      ],
      [
        "instCancelMonoid",
        -13.388194396286583
      ],
      [
        "Period",
        -13.389502347775096
      ],
      [
        "Sequence",
        -13.389963151563398
      ],
      [
        "toComma",
        -13.390369516213857
      ],
      [
        "Encodable",
        -13.391495145228252
      ],
      [
        "instInf",
        -13.393159753008495
      ],
      [
        "instAddTorsor",
        -13.397036767389597
      ],
      [
        "HasEquiv",
        -13.39856094206625
      ],
      [
        "ds",
        -13.400083462454628
      ],
      [
        "erase",
        -13.40023105832644
      ],
      [
        "onoidWithOne",
        -13.40031949742697
      ],
      [
        "IsPr",
        -13.403465040374149
      ],
      [
        "atBot",
        -13.404226824465901
      ],
      [
        "toAffine",
        -13.404640607748384
      ],
      [
        "ypeToCat",
        -13.405548961876123
      ],
      [
        "tSep",
        -13.40617952870403
      ],
      [
        "ommMonoidWithOne",
        -13.41042596935731
      ],
      [
        "damentalGroupoid",
        -13.410990157384228
      ],
      [
        "iso",
        -13.411924919303484
      ],
      [
        "Edge",
        -13.41219340701348
      ],
      [
        "IsNilpotent",
        -13.412290083644983
      ],
      [
        "Universal",
        -13.414438542973935
      ],
      [
        "AEval",
        -13.417046128080838
      ],
      [
        "Cycle",
        -13.417070375579923
      ],
      [
        "actorizationData",
        -13.421661617224796
      ],
      [
        "intro",
        -13.422509815755703
      ],
      [
        "_directed",
        -13.423159652167223
      ],
      [
        "FourierTransform",
        -13.423311419719443
      ],
      [
        "ns",
        -13.423647707251686
      ],
      [
        "pred",
        -13.423946933771344
      ],
      [
        "partSize",
        -13.424891706025168
      ],
      [
        "IsChain",
        -13.424896400801039
      ],
      [
        "aluationSubring",
        -13.426829755423707
      ],
      [
        "Equalizer",
        -13.429671508697233
      ],
      [
        "Nodup",
        -13.429870812290797
      ],
      [
        "uliftYoneda",
        -13.433858975617854
      ],
      [
        "pushforward",
        -13.433987843930126
      ],
      [
        "GroupSeminorm",
        -13.434378322601827
      ],
      [
        "instIs",
        -13.434717259556553
      ],
      [
        "forgetTo",
        -13.434850182524144
      ],
      [
        "hasBiproduct",
        -13.436971249837434
      ],
      [
        "InfHom",
        -13.438696342137963
      ],
      [
        "NFA",
        -13.43982291667437
      ],
      [
        "AsBoolRing",
        -13.440483804756639
      ],
      [
        "powersetCard",
        -13.440930914588492
      ],
      [
        "eftExtension",
        -13.441403950098312
      ],
      [
        "toList",
        -13.441444001311524
      ],
      [
        "SelfAdjoint",
        -13.442535153263325
      ],
      [
        "nnectedComponent",
        -13.442645499753011
      ],
      [
        "toSubmonoid",
        -13.442802621261961
      ],
      [
        "Temper",
        -13.443530847805905
      ],
      [
        "PreservesLimit",
        -13.444156324410539
      ],
      [
        "OfModule",
        -13.44613848889646
      ],
      [
        "Cofan",
        -13.447066988392798
      ],
      [
        "FinBoolAlg",
        -13.448026418621367
      ],
      [
        "Mem",
        -13.4487518996239
      ],
      [
        "oundedContinuous",
        -13.449287115162225
      ],
      [
        "cell",
        -13.450144806527064
      ],
      [
        "sLimitOf",
        -13.450991456030184
      ],
      [
        "coeTo",
        -13.452360993714887
      ],
      [
        "instSuccOrder",
        -13.452925201245845
      ],
      [
        "MulOf",
        -13.454689717469616
      ],
      [
        "ingHomSurjective",
        -13.455153469013231
      ],
      [
        "UnitDis",
        -13.456770060108571
      ],
      [
        "pre",
        -13.457178571433825
      ],
      [
        "cone",
        -13.45739146491685
      ],
      [
        "Manifold",
        -13.459464205304496
      ],
      [
        "Gaussian",
        -13.459783462183822
      ],
      [
        "ax",
        -13.460920666761428
      ],
      [
        "ow",
        -13.462067362910695
      ],
      [
        "groupWithZero",
        -13.464663503446612
      ],
      [
        "RegularE",
        -13.464739495651816
      ],
      [
        "z",
        -13.46509970676843
      ],
      [
        "ModularForm",
        -13.465480062058877
      ],
      [
        "Homology_of_",
        -13.466062724090857
      ],
      [
        "sigma",
        -13.467392751329712
      ],
      [
        "ixingAddSubgroup",
        -13.467515379730134
      ],
      [
        "BialgEquiv",
        -13.470329418728117
      ],
      [
        "Limit",
        -13.47071052290061
      ],
      [
        "fla",
        -13.470752055588626
      ],
      [
        "whiskeringRight",
        -13.472211857863444
      ],
      [
        "drop",
        -13.472256651852192
      ],
      [
        "instTopEN",
        -13.472903162149578
      ],
      [
        "HasSum",
        -13.473225534637706
      ],
      [
        "LeftMono",
        -13.473545932239881
      ],
      [
        "HomCarrier",
        -13.473584049229437
      ],
      [
        "sRing",
        -13.47374757306634
      ],
      [
        "ShiftedHom",
        -13.474726399308844
      ],
      [
        "Ioo",
        -13.474812731569028
      ],
      [
        "incl",
        -13.475971401647685
      ],
      [
        "restriction",
        -13.475980636041053
      ],
      [
        "Tagged",
        -13.477145036650601
      ],
      [
        "IsFreeGroup",
        -13.47882463424953
      ],
      [
        "leadingCoeff",
        -13.478843713745066
      ],
      [
        "dual",
        -13.479565031118565
      ],
      [
        "closed",
        -13.481074510886266
      ],
      [
        "SFinite",
        -13.481561378667664
      ],
      [
        "Antidiagonal",
        -13.48242387476757
      ],
      [
        "FundamentalGroup",
        -13.483224769002266
      ],
      [
        "Isometry",
        -13.484846190252139
      ],
      [
        "reverse",
        -13.487730729324724
      ],
      [
        "Trailing",
        -13.488356485505015
      ],
      [
        "FreeRefl",
        -13.490667737336587
      ],
      [
        "LeftAction",
        -13.494293912076413
      ],
      [
        "con",
        -13.494451166421879
      ],
      [
        "HasLimit",
        -13.494893195482527
      ],
      [
        "natAbs",
        -13.495837836355129
      ],
      [
        "ence",
        -13.496930334877618
      ],
      [
        "arOrdered",
        -13.497536357267037
      ],
      [
        "groupHomology",
        -13.500853893142827
      ],
      [
        "AddCommMonoidOr",
        -13.50183496375851
      ],
      [
        "nearMapIdCarrier",
        -13.506504832833475
      ],
      [
        "IsCo",
        -13.507490058725658
      ],
      [
        "OrderMonoidIso",
        -13.509534202386828
      ],
      [
        "CoalgEquiv",
        -13.511973539512041
      ],
      [
        "initial",
        -13.513170021925077
      ],
      [
        "PositiveLinear",
        -13.513617983066435
      ],
      [
        "instSemi",
        -13.51476874455859
      ],
      [
        "tail",
        -13.51518243111115
      ],
      [
        "rec",
        -13.516730219642362
      ],
      [
        "sin",
        -13.51827627449817
      ],
      [
        "actionHom",
        -13.518987622535152
      ],
      [
        "PreservesColimit",
        -13.519669375873207
      ],
      [
        "imax",
        -13.522478558647101
      ],
      [
        "AddOre",
        -13.523069437118053
      ],
      [
        "toAddComm",
        -13.523457153522493
      ],
      [
        "PreEnvelGroup",
        -13.523464109077494
      ],
      [
        "toSSet",
        -13.524523650553629
      ],
      [
        "spher",
        -13.526110590130525
      ],
      [
        "HasKernels",
        -13.527820621730555
      ],
      [
        "toSubgroup",
        -13.528227785615254
      ],
      [
        "abelian",
        -13.528904391908862
      ],
      [
        "categoryFree",
        -13.530625941777124
      ],
      [
        "Cfg",
        -13.530832051530002
      ],
      [
        "Nonneg",
        -13.531286094030662
      ],
      [
        "H1Cotangent",
        -13.532019619268006
      ],
      [
        "ma",
        -13.533293155347712
      ],
      [
        "niformContinuous",
        -13.5335990836621
      ],
      [
        "diag",
        -13.533817476762707
      ],
      [
        "utation",
        -13.535997746313239
      ],
      [
        "ymmetrify",
        -13.536759271853686
      ],
      [
        "sLocalRing",
        -13.536789548601167
      ],
      [
        "EquivOf",
        -13.536855554666104
      ],
      [
        "rthonormalBasis",
        -13.53734070915408
      ],
      [
        "Primrec",
        -13.53761290593714
      ],
      [
        "hasColimit",
        -13.538714482196399
      ],
      [
        "IsAlgebraic",
        -13.540697375152066
      ],
      [
        "EqOn",
        -13.540944825492211
      ],
      [
        "Sylow",
        -13.541194708142015
      ],
      [
        "IsLittleO",
        -13.542968310139017
      ],
      [
        "bj",
        -13.542979542610839
      ],
      [
        "intervalIntegra",
        -13.544688652854926
      ],
      [
        "eTheor",
        -13.54610783423447
      ],
      [
        "FloorRing",
        -13.548010672532428
      ],
      [
        "inearIndependent",
        -13.549766479511142
      ],
      [
        "hasFiniteCo",
        -13.550486062290862
      ],
      [
        "IsMax",
        -13.550699886041683
      ],
      [
        "ave",
        -13.551415689215226
      ],
      [
        "products_of_has",
        -13.552020894041958
      ],
      [
        "CovBy",
        -13.553774962007186
      ],
      [
        "asFiber",
        -13.554877901130094
      ],
      [
        "Quasi",
        -13.555524846165195
      ],
      [
        "withConstants",
        -13.555769235160774
      ],
      [
        "tensorLeft",
        -13.556093938292538
      ],
      [
        "OfSMulCommClass",
        -13.556564933526541
      ],
      [
        "aleph",
        -13.559483592742751
      ],
      [
        "SignedMeasure",
        -13.560235232162414
      ],
      [
        "empty",
        -13.560549151139716
      ],
      [
        "mAlg",
        -13.56313110088908
      ],
      [
        "commMonoid",
        -13.56584149448641
      ],
      [
        "initeGalois",
        -13.566024653834397
      ],
      [
        "instIsTwoSided",
        -13.56688100954849
      ],
      [
        "frame",
        -13.567369377617432
      ],
      [
        "SomeENatTop",
        -13.567681398333207
      ],
      [
        "ssociates",
        -13.568024395788157
      ],
      [
        "ZeroClass",
        -13.568736066328759
      ],
      [
        "Chain",
        -13.570334550236222
      ],
      [
        "Cell",
        -13.571112283716676
      ],
      [
        "FreeAdd",
        -13.572042640437239
      ],
      [
        "Simplicial",
        -13.572324184795542
      ],
      [
        "div",
        -13.575353653339073
      ],
      [
        "instMonad",
        -13.575932849870224
      ],
      [
        "LimitCone",
        -13.577156752501537
      ],
      [
        "ComonObj",
        -13.577514342085191
      ],
      [
        "?",
        -13.577578861248838
      ],
      [
        "CommSq",
        -13.577689752135882
      ],
      [
        "copy",
        -13.578095006283338
      ],
      [
        "ists'",
        -13.57932837838425
      ],
      [
        "instBEq",
        -13.579678139052021
      ],
      [
        "ingParallelPair",
        -13.58046126430083
      ],
      [
        "ddTorsor",
        -13.581092614676486
      ],
      [
        "ategoryStruct",
        -13.581596315608298
      ],
      [
        "diagonal",
        -13.583282045182088
      ],
      [
        "order",
        -13.58433975456624
      ],
      [
        "Trivial",
        -13.584526398118282
      ],
      [
        "Subspace",
        -13.584760603946993
      ],
      [
        "Proto",
        -13.585008293793413
      ],
      [
        "¼",
        -13.585020753912607
      ],
      [
        "mpactlyGenerated",
        -13.585220484666996
      ],
      [
        "_of_max",
        -13.58577074609824
      ],
      [
        "able",
        -13.587674559785121
      ],
      [
        "HasPullbacks",
        -13.589720947153886
      ],
      [
        "Diffeomorph",
        -13.590028097325963
      ],
      [
        "generate",
        -13.591956322115688
      ],
      [
        "torsion",
        -13.592474848964798
      ],
      [
        "AddComm",
        -13.593583745271246
      ],
      [
        "edDistribution",
        -13.594880610741875
      ],
      [
        "elim",
        -13.595257362618234
      ],
      [
        "Day",
        -13.59534470487532
      ],
      [
        "leftOp",
        -13.595598503842808
      ],
      [
        "alternating",
        -13.596228217977124
      ],
      [
        "uliftFunctor",
        -13.59679141205192
      ],
      [
        "AddOr",
        -13.598470106619272
      ],
      [
        "FDRep",
        -13.599307229979019
      ],
      [
        "DiscreteTopology",
        -13.599511343467203
      ],
      [
        "RelHom",
        -13.6001585335266
      ],
      [
        "ContextFree",
        -13.600212741137705
      ],
      [
        "OrderMonoidHom",
        -13.602718149661884
      ],
      [
        "Pro",
        -13.602855180164536
      ],
      [
        "Sequential",
        -13.603908002031279
      ],
      [
        "IsAbsoluteValue",
        -13.607876004905968
      ],
      [
        "arrow",
        -13.608341102841884
      ],
      [
        "get",
        -13.608786606460182
      ],
      [
        "instCategoryComp",
        -13.609547527429822
      ],
      [
        "ReflQuiv",
        -13.610046665474865
      ],
      [
        "ttach",
        -13.610099269720834
      ],
      [
        "untablyGenerated",
        -13.611251393869395
      ],
      [
        "rderedAdd",
        -13.611526321659632
      ],
      [
        "PullbackCone",
        -13.614059010561165
      ],
      [
        "oconeTypes",
        -13.614911488686186
      ],
      [
        "factorial",
        -13.615330399011775
      ],
      [
        "HasS",
        -13.615530941535033
      ],
      [
        "limitsOfShape",
        -13.619157093793259
      ],
      [
        "lim",
        -13.62026518653839
      ],
      [
        "inferInstance",
        -13.625177626476907
      ],
      [
        "Line",
        -13.625223604157926
      ],
      [
        "edCommGroup",
        -13.626190889827914
      ],
      [
        "finite",
        -13.627530101015015
      ],
      [
        "finsu",
        -13.627579476024158
      ],
      [
        "Name",
        -13.629891466682306
      ],
      [
        "Holder",
        -13.630462584535156
      ],
      [
        "ntegralClosure",
        -13.63181163919026
      ],
      [
        "Prepa",
        -13.632516464589756
      ],
      [
        "Axiom",
        -13.633310649894392
      ],
      [
        "SuccStruct",
        -13.634158393955186
      ],
      [
        "onFun",
        -13.634429274364606
      ],
      [
        "Ĺ",
        -13.638724916408934
      ],
      [
        "Kleisli",
        -13.638724917004325
      ],
      [
        "lgHomClass",
        -13.639526804983483
      ],
      [
        "GCDMonoid",
        -13.640779146282188
      ],
      [
        "Sp",
        -13.64101440034064
      ],
      [
        "ofinite",
        -13.642754423897642
      ],
      [
        "allyDisconnected",
        -13.643075793242271
      ],
      [
        "evaluation",
        -13.643166539951569
      ],
      [
        "braiding",
        -13.646639195359345
      ],
      [
        "induced",
        -13.647717420155601
      ],
      [
        "IsP",
        -13.648359094228386
      ],
      [
        "axBraidedFunctor",
        -13.648555991964756
      ],
      [
        "Change",
        -13.649334180172445
      ],
      [
        "Poly",
        -13.650474056719272
      ],
      [
        "AddChar",
        -13.652217947728964
      ],
      [
        "toCompl",
        -13.653110050920265
      ],
      [
        "Multispan",
        -13.654048394753577
      ],
      [
        "ideal",
        -13.65445761492744
      ],
      [
        "basicOpen",
        -13.654688389804406
      ],
      [
        "IsL",
        -13.654712769163236
      ],
      [
        "Along",
        -13.655172442875706
      ],
      [
        "pos",
        -13.655209950937326
      ],
      [
        "Approx",
        -13.656007541236928
      ],
      [
        "BinaryBiproduct",
        -13.656741908508053
      ],
      [
        "instHopfAlgebra",
        -13.657141466879457
      ],
      [
        "eflection",
        -13.658376476086012
      ],
      [
        "Odd",
        -13.658469111667374
      ],
      [
        "Half",
        -13.658602588180557
      ],
      [
        "Quiv",
        -13.658818914903872
      ],
      [
        "multicospanShape",
        -13.66121951815171
      ],
      [
        "skewAdjoint",
        -13.662921830942079
      ],
      [
        "OfLE",
        -13.664281904891325
      ],
      [
        "instCo",
        -13.665036465908805
      ],
      [
        "padic",
        -13.665515250765853
      ],
      [
        "MulRight",
        -13.666368550844533
      ],
      [
        "nitialSeg",
        -13.668671318893708
      ],
      [
        "eLpNorm",
        -13.66910410876773
      ],
      [
        "sUnion",
        -13.670592665523843
      ],
      [
        "quivLike",
        -13.671049161560507
      ],
      [
        "centralizer",
        -13.671478834081825
      ],
      [
        "bic",
        -13.671795666310368
      ],
      [
        "Meromorphic",
        -13.672391608280444
      ],
      [
        "TangentBundle",
        -13.672812553189447
      ],
      [
        "niformCon",
        -13.673821637297166
      ],
      [
        "fals",
        -13.675005494295801
      ],
      [
        "Section",
        -13.677362382162435
      ],
      [
        "instLieRing",
        -13.67830688180574
      ],
      [
        "preserves",
        -13.678817855190047
      ],
      [
        "rallelFamily",
        -13.679590833191696
      ],
      [
        "InfTopHom",
        -13.680633588603492
      ],
      [
        "eudoMetricSpace",
        -13.682985320434653
      ],
      [
        "Cofork",
        -13.683541078800769
      ],
      [
        "instCoalgebra",
        -13.683870872307862
      ],
      [
        "Variable",
        -13.68510418121074
      ],
      [
        "tChart",
        -13.685280993680758
      ],
      [
        "ZeroAtInfty",
        -13.686709291377994
      ],
      [
        "LaxBraided",
        -13.686865977562915
      ],
      [
        "\"",
        -13.687170295972354
      ],
      [
        "Key",
        -13.687524629730742
      ],
      [
        "Functions",
        -13.688912600641213
      ],
      [
        "ability",
        -13.690480999393236
      ],
      [
        "instHasPullback",
        -13.692973622332843
      ],
      [
        "Relative",
        -13.694454757934977
      ],
      [
        "sLocalizedModule",
        -13.697371093152245
      ],
      [
        "leftHomology",
        -13.698054375482357
      ],
      [
        "instUniformSpace",
        -13.698337134114759
      ],
      [
        "sc'",
        -13.698887551353183
      ],
      [
        "btw",
        -13.699558585895883
      ],
      [
        "ashInvariantForm",
        -13.699792151187317
      ],
      [
        "seq",
        -13.700365575062342
      ],
      [
        "toLat",
        -13.700866948865634
      ],
      [
        "LENat",
        -13.702352781154548
      ],
      [
        "toLaxMonoidal",
        -13.703660026522755
      ],
      [
        "rightHomology",
        -13.7045833267623
      ],
      [
        "njOn",
        -13.706541817813866
      ],
      [
        "initeIndexNormal",
        -13.707271213717824
      ],
      [
        "Thin",
        -13.709659422996808
      ],
      [
        "DilationEquiv",
        -13.709829773882177
      ],
      [
        "Braiding",
        -13.710194809479933
      ],
      [
        "sign",
        -13.711957899648594
      ],
      [
        "PredOrder",
        -13.71199005578612
      ],
      [
        "instSupSet",
        -13.712317487078256
      ],
      [
        "instSemigroup",
        -13.713765970793878
      ],
      [
        "HasBinaryProduct",
        -13.713811443122509
      ],
      [
        "HasDerivAt",
        -13.714430846639964
      ],
      [
        "point",
        -13.71535847154512
      ],
      [
        "Short",
        -13.716090109992855
      ],
      [
        "Zariski",
        -13.716553377640505
      ],
      [
        "unitIso",
        -13.717120873594812
      ],
      [
        "Analytic",
        -13.71865666572861
      ],
      [
        "InvolutiveInv",
        -13.720710884046685
      ],
      [
        "Coordinate",
        -13.723008800773457
      ],
      [
        "Finmap",
        -13.724218505415152
      ],
      [
        "floor",
        -13.725133303440856
      ],
      [
        "reindex",
        -13.727295800999338
      ],
      [
        "continuous",
        -13.727528276910295
      ],
      [
        "hasSMul",
        -13.727608895090501
      ],
      [
        "univLE",
        -13.728002746532585
      ],
      [
        "mapPair",
        -13.729184549615017
      ],
      [
        "ntegrableOn",
        -13.729475614087848
      ],
      [
        "inEncoding",
        -13.73004808388941
      ],
      [
        "NonUnitalS",
        -13.73074199441658
      ],
      [
        "UniformEquiv",
        -13.732170860142531
      ],
      [
        "Lower",
        -13.732660317136432
      ],
      [
        "ChosenPullbacks",
        -13.733373513698696
      ],
      [
        "otalComplexShape",
        -13.733805729738382
      ],
      [
        "NatIso",
        -13.734062200289287
      ],
      [
        "Shelf",
        -13.734779008296389
      ],
      [
        "FixedPoint",
        -13.734844839023268
      ],
      [
        "instSup",
        -13.73578298348831
      ],
      [
        "runcation",
        -13.736630798000734
      ],
      [
        "Minimal",
        -13.736669400407392
      ],
      [
        "invFun",
        -13.738243777547847
      ],
      [
        "multispan",
        -13.740562752880445
      ],
      [
        "egularTopology",
        -13.740649501998147
      ],
      [
        "FiniteProducts",
        -13.741139329513311
      ],
      [
        "factor",
        -13.741369943112346
      ],
      [
        "BoundedOrderHom",
        -13.74200931866077
      ],
      [
        "tmul",
        -13.742244844887447
      ],
      [
        "Combinat",
        -13.742450539042595
      ],
      [
        "tieltjesFunction",
        -13.743537109400918
      ],
      [
        "instDecidable",
        -13.744114213521744
      ],
      [
        "derivWithin",
        -13.744312875561961
      ],
      [
        "hicken",
        -13.746518088341011
      ],
      [
        "_of_preserves",
        -13.748032273506453
      ],
      [
        "cept",
        -13.748696512740393
      ],
      [
        "ExpChar",
        -13.749034662428976
      ],
      [
        "IsNoetherian",
        -13.749632873118305
      ],
      [
        "orderOf",
        -13.750052135893062
      ],
      [
        "Cylinder",
        -13.751310334267332
      ],
      [
        "IsAddUnit",
        -13.751398162121072
      ],
      [
        "additive",
        -13.751640074562147
      ],
      [
        "ContinuousMapC",
        -13.751643887091046
      ],
      [
        "toSubsemigroup",
        -13.752697626804949
      ],
      [
        "ctorId",
        -13.753687877056858
      ],
      [
        "j",
        -13.755150675182458
      ],
      [
        "MemL",
        -13.75823532353681
      ],
      [
        "regular",
        -13.759886970134795
      ],
      [
        "locale",
        -13.760641448827714
      ],
      [
        "sColimitOfHasCo",
        -13.762074859963448
      ],
      [
        "monomial",
        -13.762821939142675
      ],
      [
        "old",
        -13.763280985652138
      ],
      [
        "LeftInverse",
        -13.763988875564916
      ],
      [
        "toAddMonoidHom",
        -13.764526402150764
      ],
      [
        "IsMin",
        -13.764741094839671
      ],
      [
        "Site",
        -13.765080813297006
      ],
      [
        "NonUnitalStar",
        -13.766584397698942
      ],
      [
        "cartesian",
        -13.767327315435104
      ],
      [
        "RingSeminorm",
        -13.768734006491137
      ],
      [
        "Congr",
        -13.768972593168296
      ],
      [
        "toAddHom",
        -13.770054925929802
      ],
      [
        "FaithfulSMul",
        -13.771254062151637
      ],
      [
        "OfShape",
        -13.773757193366013
      ],
      [
        "IsPushout",
        -13.775861179336863
      ],
      [
        "rincipalSeg",
        -13.775981364602636
      ],
      [
        "Ind",
        -13.776345267917582
      ],
      [
        "instAddAction",
        -13.776542298921303
      ],
      [
        "ofList",
        -13.777985118363944
      ],
      [
        "FullyFaithful",
        -13.779524805782092
      ],
      [
        "monMonoidal",
        -13.780704203988815
      ],
      [
        "toMi",
        -13.781748957306753
      ],
      [
        "colim",
        -13.782247716303303
      ],
      [
        "homogeneous",
        -13.782896043243728
      ],
      [
        "Incidence",
        -13.786923595568293
      ],
      [
        "quiver",
        -13.787188487228555
      ],
      [
        "categoryF",
        -13.789095395551197
      ],
      [
        "instFintype",
        -13.791011613382015
      ],
      [
        "structuredArrow",
        -13.791575701774867
      ],
      [
        "addOrderOf",
        -13.792034658653783
      ],
      [
        "oric",
        -13.792585937439783
      ],
      [
        "OrderRingHom",
        -13.796473478760099
      ],
      [
        "SetSemiring",
        -13.79674762437499
      ],
      [
        "rderAddMonoidIso",
        -13.798269460218346
      ],
      [
        "tile",
        -13.799804594965629
      ],
      [
        "RightResolution",
        -13.799807150277587
      ],
      [
        "OneT",
        -13.802665357260373
      ],
      [
        "neighborSet",
        -13.803560595427108
      ],
      [
        "precompose",
        -13.805477070743365
      ],
      [
        "Pr",
        -13.80598756654423
      ],
      [
        "Subcategory",
        -13.80686859517007
      ],
      [
        "SupBotHom",
        -13.807611395643882
      ],
      [
        "Compact",
        -13.809100742102132
      ],
      [
        "homMk",
        -13.809832333168536
      ],
      [
        "counitIso",
        -13.812772803030583
      ],
      [
        "mappingCone",
        -13.812775311557356
      ],
      [
        "Multis",
        -13.817519629154436
      ],
      [
        "KanExtension",
        -13.821534075964923
      ],
      [
        "HoCat",
        -13.821953099032402
      ],
      [
        "OrthogonalR",
        -13.824593348270504
      ],
      [
        "arallelFamily",
        -13.82515665845864
      ],
      [
        "equivalence",
        -13.827211834581856
      ],
      [
        "distribMulAction",
        -13.82767455238358
      ],
      [
        "nstCategoryLight",
        -13.82898241895113
      ],
      [
        "Same",
        -13.829238229019252
      ],
      [
        "toCo",
        -13.829387884553004
      ],
      [
        "MulArchimedean",
        -13.832138697097122
      ],
      [
        "press",
        -13.832893363187248
      ],
      [
        "toCommGroup",
        -13.833110930179453
      ],
      [
        "OfDecidableEq",
        -13.83332327235356
      ],
      [
        "Image",
        -13.836771066646563
      ],
      [
        "Inf",
        -13.837527977448858
      ],
      [
        "FiniteGrp",
        -13.838887286954108
      ],
      [
        "IsOrderedAdd",
        -13.838971065290174
      ],
      [
        "ightKanExtension",
        -13.839614719371031
      ],
      [
        "Pos",
        -13.840136751006476
      ],
      [
        "hasOpNorm",
        -13.841150295936306
      ],
      [
        "nstLinearOrdered",
        -13.841241232094868
      ],
      [
        "DFA",
        -13.841677626449204
      ],
      [
        "Length",
        -13.8417380956684
      ],
      [
        "RightInverse",
        -13.842120524592964
      ],
      [
        "Smooth",
        -13.842870504761759
      ],
      [
        "complete",
        -13.844064150987846
      ],
      [
        "instFunLikeNat",
        -13.844106700344454
      ],
      [
        "himp",
        -13.844324698089626
      ],
      [
        "BddBelow",
        -13.84598550230301
      ],
      [
        "instVAdd",
        -13.847928312897483
      ],
      [
        "Constructi",
        -13.850643323663009
      ],
      [
        "Shift",
        -13.852260915705143
      ],
      [
        "instQuiver",
        -13.852508007196768
      ],
      [
        "AddConstMap",
        -13.855431991614282
      ],
      [
        "append",
        -13.855563273637635
      ],
      [
        "Blank",
        -13.855730801145603
      ],
      [
        "instAddSemigroup",
        -13.85688590477304
      ],
      [
        "Graph",
        -13.858566669419066
      ],
      [
        "instBraided",
        -13.859760000671603
      ],
      [
        "next",
        -13.859985806819623
      ],
      [
        "co",
        -13.861623815371777
      ],
      [
        "ddLeftStrictMono",
        -13.86183124063865
      ],
      [
        "obabilityMeasure",
        -13.861868111480696
      ],
      [
        "toNNReal",
        -13.863886365724774
      ],
      [
        "ushoutCocone",
        -13.86394321738539
      ],
      [
        "Magma",
        -13.86518227736217
      ],
      [
        "set",
        -13.865222811415151
      ],
      [
        "IsPullback",
        -13.866321141698599
      ],
      [
        "exists_",
        -13.867358367716903
      ],
      [
        "Symbol",
        -13.868124418142152
      ],
      [
        "IsAdjoinRoot",
        -13.869483735129602
      ],
      [
        "zpow",
        -13.86986088689017
      ],
      [
        "OpenNhds",
        -13.870528436155018
      ],
      [
        "nonUnital",
        -13.870620542756036
      ],
      [
        "repr",
        -13.870669750728972
      ],
      [
        "Lax",
        -13.870696528431816
      ],
      [
        "WithHomology",
        -13.871120987403456
      ],
      [
        "HomComple",
        -13.87528071469572
      ],
      [
        "erVietorisSquare",
        -13.875625961029506
      ],
      [
        "cocone",
        -13.876704567192387
      ],
      [
        "hartA",
        -13.878522057322225
      ],
      [
        "toSubmodule",
        -13.878798527751215
      ],
      [
        "realSpace",
        -13.880610377023114
      ],
      [
        "toLRSHom",
        -13.880975825477899
      ],
      [
        "oBoolAlg",
        -13.88104424971472
      ],
      [
        "Dart",
        -13.88256353559299
      ],
      [
        "limitCone",
        -13.882868288373107
      ],
      [
        "Law",
        -13.884572893957918
      ],
      [
        "PosSMul",
        -13.884643700159572
      ],
      [
        "icategory",
        -13.887825113636456
      ],
      [
        "ColimitsOfSize",
        -13.888712613180344
      ],
      [
        "NonarchAddGroup",
        -13.889543809261792
      ],
      [
        "epresentableBy",
        -13.890907502709485
      ],
      [
        "gen",
        -13.894050391878467
      ],
      [
        "Projection",
        -13.894688664958132
      ],
      [
        "Cohomology",
        -13.895479860853735
      ],
      [
        "toGrp",
        -13.896116152797564
      ],
      [
        "FiniteType",
        -13.897890143845169
      ],
      [
        "cfc",
        -13.899323255128692
      ],
      [
        "charZero",
        -13.899714010837787
      ],
      [
        "mapTriangle",
        -13.900228805113755
      ],
      [
        "pow",
        -13.900544929188847
      ],
      [
        "extendScalars",
        -13.901658374992142
      ],
      [
        "ntry",
        -13.902180588567854
      ],
      [
        "Besicovitch",
        -13.903360141379743
      ],
      [
        "IsSFiniteKernel",
        -13.90336435562465
      ],
      [
        "IsCompl",
        -13.904339793780242
      ],
      [
        "Covering",
        -13.904412460783412
      ],
      [
        "MapF",
        -13.904456313474666
      ],
      [
        "alizedGCDMonoid",
        -13.906586174441705
      ],
      [
        "Projectiv",
        -13.90765692531165
      ],
      [
        "Splits",
        -13.907941203820805
      ],
      [
        "StructureSheaf",
        -13.908597567774454
      ],
      [
        "toAlgHom",
        -13.909466573286384
      ],
      [
        "Arr",
        -13.910539617481767
      ],
      [
        "Recur",
        -13.9105876127235
      ],
      [
        "rence",
        -13.91190154575351
      ],
      [
        "Holor",
        -13.916282389299539
      ],
      [
        "IsDirected",
        -13.916331859905018
      ],
      [
        "IsClosedUnder",
        -13.916431121515608
      ],
      [
        "ncard",
        -13.916939059447884
      ],
      [
        "ī",
        -13.918881884987284
      ],
      [
        "comul",
        -13.919639285313227
      ],
      [
        "getElem",
        -13.920138428741406
      ],
      [
        "nAssocComm",
        -13.92036791842698
      ],
      [
        "sInfHom",
        -13.920546342692239
      ],
      [
        "umDen",
        -13.921029205441325
      ],
      [
        "AnalyticOn",
        -13.9215341051362
      ],
      [
        "Btw",
        -13.921596727120397
      ],
      [
        "Preconnected",
        -13.92181330590065
      ],
      [
        "hasShift",
        -13.922774441768462
      ],
      [
        "AddMagma",
        -13.923848726640308
      ],
      [
        "FrameHom",
        -13.923905827524694
      ],
      [
        "Locus",
        -13.92416369080433
      ],
      [
        "Dilation",
        -13.926656304329756
      ],
      [
        "PosMul",
        -13.927110848221249
      ],
      [
        "GaloisCo",
        -13.927720561739726
      ],
      [
        "Independent",
        -13.927945787373863
      ],
      [
        "amming",
        -13.928331767265455
      ],
      [
        "LSeries",
        -13.931018920144755
      ],
      [
        "mulAction",
        -13.931488425847192
      ],
      [
        "IsCofiltered",
        -13.93207302392334
      ],
      [
        "RightAction",
        -13.932253148071457
      ],
      [
        "Inverse",
        -13.933071041536017
      ],
      [
        "enselyOrdered",
        -13.933388979272433
      ],
      [
        "baseChange",
        -13.93465957648433
      ],
      [
        "externalProduct",
        -13.93493348950222
      ],
      [
        "distinguished",
        -13.93500098988562
      ],
      [
        "omega",
        -13.936335697746598
      ],
      [
        "orbit",
        -13.93724118980717
      ],
      [
        "fDegreewiseSplit",
        -13.937711454997412
      ],
      [
        "From",
        -13.937966417138124
      ],
      [
        "symmetrify",
        -13.938672185187023
      ],
      [
        "CompleteLat",
        -13.940112654620052
      ],
      [
        "CStarRing",
        -13.940178763302603
      ],
      [
        "creteCategory",
        -13.940301590964598
      ],
      [
        "monoidWithZero",
        -13.940742338604478
      ],
      [
        "Ordering",
        -13.94102839869606
      ],
      [
        "Integra",
        -13.94171916124188
      ],
      [
        "ContDiffBump",
        -13.94244266020019
      ],
      [
        "EssentiallySmall",
        -13.942634307242606
      ],
      [
        "HasPushout",
        -13.942738266647838
      ],
      [
        "edgeSet",
        -13.943009823971067
      ],
      [
        "Repr",
        -13.943481042106903
      ],
      [
        "instZeroE",
        -13.947012490002479
      ],
      [
        "Above",
        -13.947053563365223
      ],
      [
        "OverClass",
        -13.94825976588638
      ],
      [
        "matrix",
        -13.949724680640063
      ],
      [
        "IsSeparable",
        -13.950684859191956
      ],
      [
        "o_continuousSMul",
        -13.95243193702703
      ],
      [
        "take",
        -13.952884996516516
      ],
      [
        "liftFromUnder",
        -13.953390990859187
      ],
      [
        "Nucleus",
        -13.953414442554289
      ],
      [
        "mapBifunctor",
        -13.953930453749852
      ],
      [
        "Gal",
        -13.954441698291387
      ],
      [
        "IsFiniteKernel",
        -13.956047329020915
      ],
      [
        "liftFromOver",
        -13.956093847632602
      ],
      [
        "WithLower",
        -13.956703143837805
      ],
      [
        "Products_of_has",
        -13.957791557741228
      ],
      [
        "requently",
        -13.958768394078827
      ],
      [
        "CLM",
        -13.958960307183302
      ],
      [
        "Content",
        -13.961049170355194
      ],
      [
        "DecidableLE",
        -13.961339422474586
      ],
      [
        "AssocQuotient",
        -13.96156246419753
      ],
      [
        "cardinal",
        -13.96283092434908
      ],
      [
        "withDensity",
        -13.964340695899573
      ],
      [
        "IsAdd",
        -13.964510651886181
      ],
      [
        "tisymmetrization",
        -13.964938380011452
      ],
      [
        "concreteCategory",
        -13.965755112662528
      ],
      [
        "instGroupoid",
        -13.966223955396941
      ],
      [
        "topological",
        -13.9664051666147
      ],
      [
        "rootSpan",
        -13.967109498012878
      ],
      [
        "EffectiveEpi",
        -13.968411525885273
      ],
      [
        "ment",
        -13.968740077993882
      ],
      [
        "Ha",
        -13.969221301314963
      ],
      [
        "IsSimple",
        -13.970537590175063
      ],
      [
        "all",
        -13.970595850813703
      ],
      [
        "oGrothendieck",
        -13.971470385475206
      ],
      [
        "polynomial",
        -13.971892644972073
      ],
      [
        "toOpposite",
        -13.972073056504517
      ],
      [
        "Normalization",
        -13.97243634857087
      ],
      [
        "ightCondSet",
        -13.973653405419695
      ],
      [
        "cocycle",
        -13.974400994583005
      ],
      [
        "groupCohomology",
        -13.97520650354765
      ],
      [
        "tractionMonoid",
        -13.975244706049825
      ],
      [
        "Light",
        -13.975746102658679
      ],
      [
        "instBounded",
        -13.976135879790762
      ],
      [
        "LocallyUniformly",
        -13.976296763647195
      ],
      [
        "FiniteLimits",
        -13.97736323152702
      ],
      [
        "belianization",
        -13.978665683616557
      ],
      [
        "ntinuousFunction",
        -13.981001706081805
      ],
      [
        "SmoothBump",
        -13.983524517509657
      ],
      [
        "hasFiniteLimits",
        -13.985830945812996
      ],
      [
        "Support",
        -13.986126580921933
      ],
      [
        "toProd",
        -13.98623443917813
      ],
      [
        "AddContent",
        -13.989565689907046
      ],
      [
        "compactOpe",
        -13.99167431831567
      ],
      [
        "IsBasis",
        -13.992012376633507
      ],
      [
        "Conj",
        -13.993556998298864
      ],
      [
        "TM1to",
        -13.994713584745917
      ],
      [
        "ceil",
        -13.99585758158222
      ],
      [
        "Ball",
        -13.996548528030965
      ],
      [
        "hasRight",
        -13.997389043371113
      ],
      [
        "limsup",
        -13.998633316166963
      ],
      [
        "andardBorelSpace",
        -13.999557517964426
      ],
      [
        "Hopf",
        -14.000479204324048
      ],
      [
        "ExistsAdd",
        -14.002593430758607
      ],
      [
        "GetElem",
        -14.00277872835787
      ],
      [
        "BotHom",
        -14.003058449269133
      ],
      [
        "Config",
        -14.00318115459525
      ],
      [
        "Elementary",
        -14.00446783629886
      ],
      [
        "agin",
        -14.004541288585635
      ],
      [
        "Ca",
        -14.005406981302443
      ],
      [
        "Coeff",
        -14.005821000923106
      ],
      [
        "Jordan",
        -14.006034207766337
      ],
      [
        "normedAddGroup",
        -14.006145747800112
      ],
      [
        "Iterate",
        -14.007629266969829
      ],
      [
        "HasProduct",
        -14.007824968824588
      ],
      [
        "eSpectrum",
        -14.007869184642047
      ],
      [
        "PosMulReflectL",
        -14.008609017921593
      ],
      [
        "widePullback",
        -14.00932046075685
      ],
      [
        "CanonicallyO",
        -14.010936496102147
      ],
      [
        "HasCoproduct",
        -14.013104342283885
      ],
      [
        "FiniteAddGrp",
        -14.014568564679667
      ],
      [
        "ContDiffWithinAt",
        -14.014615109390302
      ],
      [
        "toSubring",
        -14.01479949381227
      ],
      [
        "TopHom",
        -14.014905718539971
      ],
      [
        "sBinaryBiproduct",
        -14.015300365989336
      ],
      [
        "IsSheaf",
        -14.015612737117149
      ],
      [
        "Gamma",
        -14.017923017906192
      ],
      [
        "eroMorphisms_of_",
        -14.018053388446603
      ],
      [
        "Preserve",
        -14.020095677109932
      ],
      [
        "subscheme",
        -14.020361007519735
      ],
      [
        "parts",
        -14.020718314839424
      ],
      [
        "derivative",
        -14.021551876606987
      ],
      [
        "_finite",
        -14.022315405762928
      ],
      [
        "rev",
        -14.023459749615554
      ],
      [
        "zsmul",
        -14.023607186860199
      ],
      [
        "IsLeftCancel",
        -14.024075474406306
      ],
      [
        "ZeroLE",
        -14.025488301538696
      ],
      [
        "Envel",
        -14.025922293411991
      ],
      [
        "lSupport",
        -14.026596650002457
      ],
      [
        "homEquiv",
        -14.026814608562585
      ],
      [
        "ialgebra",
        -14.026916649357648
      ],
      [
        "ValuationRing",
        -14.027769468417024
      ],
      [
        "Reduced",
        -14.027923222825788
      ],
      [
        "rel",
        -14.028189485628547
      ],
      [
        "instAlgebra_",
        -14.028228470796385
      ],
      [
        "State",
        -14.029173355960587
      ],
      [
        "transpose",
        -14.029992185021648
      ],
      [
        "Antivary",
        -14.03195177980426
      ],
      [
        "omotopyCofiber",
        -14.03206401466205
      ],
      [
        "IsGalois",
        -14.035152205129586
      ],
      [
        "mapObj",
        -14.036675555186015
      ],
      [
        "append1",
        -14.038146449442976
      ],
      [
        "Formally",
        -14.038271221708664
      ],
      [
        "has_kernel",
        -14.038675879207776
      ],
      [
        "Val",
        -14.03915771777573
      ],
      [
        "StrictAnti",
        -14.040764260577252
      ],
      [
        "topology",
        -14.04253003577509
      ],
      [
        "mapRange",
        -14.043877409976657
      ],
      [
        "essImage",
        -14.044041960765862
      ],
      [
        "clideanHalfSpace",
        -14.045072151430908
      ],
      [
        "PointedCon",
        -14.045293960163853
      ],
      [
        "Traversable",
        -14.046250883319658
      ],
      [
        "Scalar",
        -14.046277742137825
      ],
      [
        "BinaryFan",
        -14.046625671822301
      ],
      [
        "HasImages",
        -14.047762907992649
      ],
      [
        "sSupHom",
        -14.050222132868665
      ],
      [
        "size",
        -14.050297332116587
      ],
      [
        "PseudoMetrizable",
        -14.05208055206914
      ],
      [
        "asFiniteProducts",
        -14.05429879909385
      ],
      [
        "IsMonoidal",
        -14.054959476821143
      ],
      [
        "Reflects",
        -14.056543909773238
      ],
      [
        "Char",
        -14.057512268973603
      ],
      [
        "fundamental",
        -14.059140145361459
      ],
      [
        "product",
        -14.059880996871817
      ],
      [
        "post",
        -14.060636798016745
      ],
      [
        "toAddLeftCancel",
        -14.06149468475737
      ],
      [
        "Semiconj",
        -14.061786401973407
      ],
      [
        "Multipliable",
        -14.063471617794107
      ],
      [
        "Level",
        -14.064600905066415
      ],
      [
        "Bind",
        -14.064649200191145
      ],
      [
        "HasKernel",
        -14.066544383858695
      ],
      [
        "fullMonoidal",
        -14.067731623422643
      ],
      [
        "T1Space",
        -14.068749987276687
      ],
      [
        "Centralizer",
        -14.069303770193764
      ],
      [
        "exists_c",
        -14.071219907840419
      ],
      [
        "sConnected",
        -14.071702519899084
      ],
      [
        "iteratedDeriv",
        -14.074795407686533
      ],
      [
        "FamilyOfElements",
        -14.07507719112995
      ],
      [
        "proof_1",
        -14.07652885357075
      ],
      [
        "IsComplement",
        -14.076718906944862
      ],
      [
        "ping",
        -14.077250932921121
      ],
      [
        "Fr",
        -14.077641779219785
      ],
      [
        "Til",
        -14.079857396233423
      ],
      [
        "encard",
        -14.080936776171736
      ],
      [
        "Height",
        -14.082722533597481
      ],
      [
        "ipschitzWith",
        -14.083188817907043
      ],
      [
        "gSpace",
        -14.083332067134315
      ],
      [
        "instAddCommM",
        -14.083927126538452
      ],
      [
        "SheafCondition",
        -14.083930756218102
      ],
      [
        "IsC",
        -14.08397572841452
      ],
      [
        "NullMeasurableS",
        -14.084877381584931
      ],
      [
        "instHasHomology",
        -14.085287681282491
      ],
      [
        "OfUnity",
        -14.086009682839602
      ],
      [
        "SemilinearMap",
        -14.086153036313883
      ],
      [
        "sheafify",
        -14.089048873410723
      ],
      [
        "casesOn",
        -14.089075532681175
      ],
      [
        "bit",
        -14.090925294886423
      ],
      [
        "mmMonoidWithZero",
        -14.091403332713872
      ],
      [
        "coequalizer",
        -14.092395595186858
      ],
      [
        "nhdsSet",
        -14.092756576948549
      ],
      [
        "Place",
        -14.094280880684178
      ],
      [
        "toFilter",
        -14.09659827748473
      ],
      [
        "BooleanRing",
        -14.097796167207697
      ],
      [
        "instCategoryCo",
        -14.097979130863862
      ],
      [
        "padicNorm",
        -14.09835979314034
      ],
      [
        "IsDiscrete",
        -14.101750235387385
      ],
      [
        "AsSmall",
        -14.102533998649765
      ],
      [
        "OpenSubsets",
        -14.10459977932302
      ],
      [
        "ardinal",
        -14.104759373696822
      ],
      [
        "apply",
        -14.105045054268071
      ],
      [
        "radical",
        -14.105265635159137
      ],
      [
        "Weight",
        -14.106132292978234
      ],
      [
        "Sup",
        -14.10694614881448
      ],
      [
        "FG",
        -14.106992422305566
      ],
      [
        "isation",
        -14.107874718570029
      ],
      [
        "step",
        -14.110686260068022
      ],
      [
        "etrizableSpace",
        -14.110757190438118
      ],
      [
        "glued",
        -14.110980408352663
      ],
      [
        "Final",
        -14.112964503245859
      ],
      [
        "has_cokernel",
        -14.11488285808608
      ],
      [
        "ontDiffAt",
        -14.115135552639448
      ],
      [
        "tensorRight",
        -14.115389977541303
      ],
      [
        "StrongEpiMono",
        -14.11579295993966
      ],
      [
        "asStrictFDerivAt",
        -14.117443689554399
      ],
      [
        "HasDeriv",
        -14.11747253803248
      ],
      [
        "mapCocone",
        -14.11766539488717
      ],
      [
        "Lipschitz",
        -14.119788997902518
      ],
      [
        "congr",
        -14.120385119669015
      ],
      [
        "IsCentral",
        -14.12048299926728
      ],
      [
        "Chosen",
        -14.120994135156478
      ],
      [
        "sTerminal",
        -14.121258595990533
      ],
      [
        "_auto_3",
        -14.12177344876161
      ],
      [
        "easurePreserving",
        -14.12303165242911
      ],
      [
        "fourier",
        -14.123505524953721
      ],
      [
        "Tape",
        -14.123901826591958
      ],
      [
        "HasFinite",
        -14.124587028552092
      ],
      [
        "lower",
        -14.125854239601118
      ],
      [
        "Transversal",
        -14.127449680986551
      ],
      [
        "instRatCast",
        -14.127628111802078
      ],
      [
        "HasFDerivAt",
        -14.130040727582495
      ],
      [
        "prev",
        -14.130262325197108
      ],
      [
        "HNot",
        -14.130670695510288
      ],
      [
        "IsUltra",
        -14.133266401184077
      ],
      [
        "instIsLocalRing",
        -14.134677860973694
      ],
      [
        "Double",
        -14.135354008734561
      ],
      [
        "LeftHomology_of_",
        -14.137750578672083
      ],
      [
        "linear",
        -14.137792920137068
      ],
      [
        "inearIndepOn",
        -14.139583991176359
      ],
      [
        "toI",
        -14.139646612346766
      ],
      [
        "RespectsIso",
        -14.13976131421595
      ],
      [
        "IsReduced",
        -14.139766337207977
      ],
      [
        "FloorSemiring",
        -14.142868592094718
      ],
      [
        "Ŀ",
        -14.143003590191366
      ],
      [
        "ProperCon",
        -14.143392066892883
      ],
      [
        "asRightDual",
        -14.14344148969524
      ],
      [
        "RightFraction",
        -14.146283673387746
      ],
      [
        "Associated",
        -14.146317339166075
      ],
      [
        "covering",
        -14.150273345181372
      ],
      [
        "IsEquivalence",
        -14.150838330508474
      ],
      [
        "asLeftDual",
        -14.151114560913975
      ],
      [
        "PreEnvelGroupRel",
        -14.152847336043106
      ],
      [
        "sinh",
        -14.156534050802938
      ],
      [
        "pectralObject",
        -14.156667612938696
      ],
      [
        "iLocalization",
        -14.156925603801
      ],
      [
        "aseSet",
        -14.160108419932852
      ],
      [
        "oAddSubsemigroup",
        -14.160597090573821
      ],
      [
        "mapHom",
        -14.160857185025556
      ],
      [
        "oAddCommMonoid",
        -14.160892120599405
      ],
      [
        "mation",
        -14.161481553615257
      ],
      [
        "PEquiv",
        -14.16200018644081
      ],
      [
        "áµ",
        -14.162773573703788
      ],
      [
        "ofD",
        -14.162854543584928
      ],
      [
        "WithUpperSet",
        -14.163354119698916
      ],
      [
        "ofL",
        -14.163560305790345
      ],
      [
        "roots",
        -14.165025084727699
      ],
      [
        "Construct",
        -14.165251572793856
      ],
      [
        "primeFactors",
        -14.166194615607292
      ],
      [
        "Basic",
        -14.166523713888934
      ],
      [
        "mapCone",
        -14.166761241550152
      ],
      [
        "instAddCo",
        -14.167001807738249
      ],
      [
        "symmDiff",
        -14.167860842121607
      ],
      [
        "sLimitOfHas",
        -14.169009049006599
      ],
      [
        "Strat",
        -14.169581747043626
      ],
      [
        "ddMonoidAlgebra",
        -14.169719692280914
      ],
      [
        "AssocClass",
        -14.171846532939234
      ],
      [
        "Orthogonal",
        -14.172177558012265
      ],
      [
        "isEquivalen",
        -14.173051206303434
      ],
      [
        "toGradedObject",
        -14.173351355896475
      ],
      [
        "ContinuousConst",
        -14.173378410216024
      ],
      [
        "IsZero",
        -14.173889899885701
      ],
      [
        "mkHom",
        -14.173976946955607
      ],
      [
        "StarAlgebra",
        -14.1753559582687
      ],
      [
        "IsIsometric",
        -14.176229057456911
      ],
      [
        "zz",
        -14.17625746995068
      ],
      [
        "instSMulOf",
        -14.177706850029558
      ],
      [
        "sLocallyDirected",
        -14.178146229849872
      ],
      [
        "sImage",
        -14.180766527082147
      ],
      [
        "opFunctor",
        -14.181390161065398
      ],
      [
        "Assoc",
        -14.182244704702516
      ],
      [
        "rnDeriv",
        -14.182972543938039
      ],
      [
        "rotate",
        -14.18323036571287
      ],
      [
        "HasLeftHomology",
        -14.184443306041771
      ],
      [
        "instC",
        -14.185711915203388
      ],
      [
        "piecewise",
        -14.186349227184312
      ],
      [
        "sheafToPresheaf",
        -14.186365470850836
      ],
      [
        "instSubN",
        -14.187236369803433
      ],
      [
        "onoidWithZeroHom",
        -14.187512237647326
      ],
      [
        "nrichedFunctor",
        -14.189775872203816
      ],
      [
        "replicate",
        -14.189786746616164
      ],
      [
        "nstSMulCommClass",
        -14.189973003329172
      ],
      [
        "decidableMem",
        -14.191704243653938
      ],
      [
        "Preserving",
        -14.193479756527239
      ],
      [
        "instHasS",
        -14.19403294210726
      ],
      [
        "toBdd",
        -14.194040310933573
      ],
      [
        "toOneHom",
        -14.196424067477958
      ],
      [
        "ClassGroup",
        -14.197574928951495
      ],
      [
        "HurwitzZeta",
        -14.198484239999956
      ],
      [
        "riangleMorphism",
        -14.198764876280414
      ],
      [
        "IsTwoSided",
        -14.199702783640534
      ],
      [
        "oLightProfinite",
        -14.199982047893428
      ],
      [
        "multiplicity",
        -14.200356880966357
      ],
      [
        "DoubleC",
        -14.201453680399153
      ],
      [
        "WellFounded",
        -14.201536388343506
      ],
      [
        "rue",
        -14.202560040256289
      ],
      [
        "IsAddHaarMeasure",
        -14.20354021051828
      ],
      [
        "sHomLift",
        -14.204300500733732
      ],
      [
        "sInducing",
        -14.205698463948012
      ],
      [
        "cond",
        -14.20688749739487
      ],
      [
        "MinOrder",
        -14.207425529460831
      ],
      [
        "residueField",
        -14.207652338955048
      ],
      [
        "functorEquiv",
        -14.208897158764103
      ],
      [
        "moveLeft",
        -14.210598579641408
      ],
      [
        "sStoppingTime",
        -14.210742478555952
      ],
      [
        "DiagramOf",
        -14.21078434925721
      ],
      [
        "Lists",
        -14.211186394939922
      ],
      [
        "as",
        -14.211217873026136
      ],
      [
        "StarRingEquiv",
        -14.211928611663726
      ],
      [
        "IsLower",
        -14.213744137276834
      ],
      [
        "inducedStructure",
        -14.214088926901772
      ],
      [
        "reflector",
        -14.214115852427762
      ],
      [
        "PreservesFinite",
        -14.214526604509231
      ],
      [
        "Three",
        -14.215232113475881
      ],
      [
        "Retract",
        -14.216065195208577
      ],
      [
        "p'",
        -14.216779537980685
      ],
      [
        "QP",
        -14.217211267658802
      ],
      [
        "Constructible",
        -14.218657480736443
      ],
      [
        "Uni",
        -14.220607873177752
      ],
      [
        "arg",
        -14.220672664765297
      ],
      [
        "liminf",
        -14.220875075655426
      ],
      [
        "Export",
        -14.221009798510106
      ],
      [
        "shortComplex",
        -14.221591189545586
      ],
      [
        "trace",
        -14.223012740109212
      ],
      [
        "decL",
        -14.224680586857733
      ],
      [
        "toNonUnitalComm",
        -14.225572617872105
      ],
      [
        "TM2Computable",
        -14.228078769284036
      ],
      [
        "isScalarTower",
        -14.228099525450265
      ],
      [
        "Fermat",
        -14.231167226197034
      ],
      [
        "Connect",
        -14.231190244776538
      ],
      [
        "HasRightHomology",
        -14.231584782553375
      ],
      [
        "Stone",
        -14.231814794554712
      ],
      [
        "TopologicalRing",
        -14.232339364111567
      ],
      [
        "SemiHomClass",
        -14.233199862023355
      ],
      [
        "instIsPreorder",
        -14.233240616097696
      ],
      [
        "MvFunctor",
        -14.23519285783787
      ],
      [
        "homOfLE",
        -14.235444932906882
      ],
      [
        "Ess",
        -14.23675239740735
      ],
      [
        "of_",
        -14.23747788324562
      ],
      [
        "ddDi",
        -14.238787535768044
      ],
      [
        "Lifts",
        -14.238976432847346
      ],
      [
        "Infinit",
        -14.239165018281819
      ],
      [
        "LightCondMod",
        -14.240070130625119
      ],
      [
        "AffineM",
        -14.240301229265423
      ],
      [
        "ection",
        -14.241959431641085
      ],
      [
        "Definable",
        -14.242400973115124
      ],
      [
        "Na",
        -14.242927546836832
      ],
      [
        "IsBase",
        -14.244021826009197
      ],
      [
        "decidableEq",
        -14.244205448958384
      ],
      [
        "Commutator",
        -14.244940494196438
      ],
      [
        "HasTerminal",
        -14.245760162309507
      ],
      [
        "oidWithOne",
        -14.247920648319344
      ],
      [
        "GromovHausdorff",
        -14.249633788131764
      ],
      [
        "wf",
        -14.24967891395059
      ],
      [
        "IsContinuous",
        -14.24993474723742
      ],
      [
        "Extrem",
        -14.250063135161357
      ],
      [
        "GroupReal",
        -14.2507412937682
      ],
      [
        "instHasColimit",
        -14.251719057523811
      ],
      [
        "Products_of_",
        -14.252151872630893
      ],
      [
        "AdicCompl",
        -14.255187903102058
      ],
      [
        "IsWellFounded",
        -14.255365129534873
      ],
      [
        "ational",
        -14.256452794441971
      ],
      [
        "mapDomain",
        -14.256536770041812
      ],
      [
        "DegLex",
        -14.257081536103291
      ],
      [
        "ThreeG",
        -14.257631385719966
      ],
      [
        "oend",
        -14.25863241159642
      ],
      [
        "airwiseDisjoint",
        -14.260281277139335
      ],
      [
        "Tr",
        -14.260358349795993
      ],
      [
        "IsCycle",
        -14.261201033137302
      ],
      [
        "WeakF",
        -14.26240432262796
      ],
      [
        "OreSet",
        -14.264231532968765
      ],
      [
        "instGetElemNatLt",
        -14.264355692723187
      ],
      [
        "sCancelMulZero",
        -14.26646940464644
      ],
      [
        "okernelCofork",
        -14.266779988258516
      ],
      [
        "toEmbedding",
        -14.266829411452559
      ],
      [
        "JordanHolder",
        -14.267950348838225
      ],
      [
        "DirectedSystem",
        -14.267950847438046
      ],
      [
        "IsEmbedding",
        -14.268535082578916
      ],
      [
        "frobenius",
        -14.27207355556914
      ],
      [
        "toSquare",
        -14.272989847679582
      ],
      [
        "IsPre",
        -14.27408130775045
      ],
      [
        "OpenCover",
        -14.276108176561696
      ],
      [
        "TorsionFree",
        -14.277338895285673
      ],
      [
        "HasCardinal",
        -14.277717880447119
      ],
      [
        "CarrierV",
        -14.27799835482523
      ],
      [
        "isWellOrder_",
        -14.278321471278403
      ],
      [
        "condExp",
        -14.27910915166057
      ],
      [
        "Multifork",
        -14.279114634350352
      ],
      [
        "postcompose",
        -14.27950315578205
      ],
      [
        "AddMe",
        -14.279689567551271
      ],
      [
        "mapIso",
        -14.279780486365336
      ],
      [
        "sets",
        -14.279829333918123
      ],
      [
        "HeytingHom",
        -14.281213126961863
      ],
      [
        "AddConst",
        -14.28178299125919
      ],
      [
        "instProd",
        -14.282205302739587
      ],
      [
        "HasInitial",
        -14.282677843466463
      ],
      [
        "truncGE'",
        -14.28312518739277
      ],
      [
        "embedding",
        -14.28359149531132
      ],
      [
        "toNonUnitalS",
        -14.284039106918941
      ],
      [
        "homologyFunctor",
        -14.28541485599472
      ],
      [
        "mpositionOfShape",
        -14.28545608619056
      ],
      [
        "instMetricSpace",
        -14.285602954408773
      ],
      [
        "transform",
        -14.285913368249387
      ],
      [
        "bifunctor",
        -14.285973666117606
      ],
      [
        "FinEn",
        -14.28645226496211
      ],
      [
        "veOn",
        -14.286979372666607
      ],
      [
        "she",
        -14.287030859339737
      ],
      [
        "IsRel",
        -14.287647685650082
      ],
      [
        "CreatesLimit",
        -14.288709833452142
      ],
      [
        "IsTrans",
        -14.28994746790522
      ],
      [
        "entralizer",
        -14.291178833033044
      ],
      [
        "AddSubgroupOf",
        -14.292218772826626
      ],
      [
        "Unitary",
        -14.293806084130418
      ],
      [
        "thicken",
        -14.294703567670725
      ],
      [
        "ancelCommMonoid",
        -14.29504009578848
      ],
      [
        "OppositeModule",
        -14.296283170630154
      ],
      [
        "Dyn",
        -14.296922218927406
      ],
      [
        "castLE",
        -14.29794693109585
      ],
      [
        "HasCompact",
        -14.297982372661673
      ],
      [
        "Contains",
        -14.298100442694407
      ],
      [
        "sOpenMap",
        -14.298105224944136
      ],
      [
        "basis",
        -14.298782576010574
      ],
      [
        "LineDeriv",
        -14.299228797635122
      ],
      [
        "rderedSub",
        -14.299293897742388
      ],
      [
        "Upper",
        -14.301638372815205
      ],
      [
        "Ĳ",
        -14.301786896278394
      ],
      [
        "IsSymm",
        -14.30195227560482
      ],
      [
        "isoMk",
        -14.302071960955093
      ],
      [
        "normalizer",
        -14.30273846642718
      ],
      [
        "HasProd",
        -14.305195541496609
      ],
      [
        "Antisymm",
        -14.309063276929269
      ],
      [
        "IntegrallyClosed",
        -14.309168334290423
      ],
      [
        "DeltaGenerated",
        -14.30946521314689
      ],
      [
        "mmMonoidWithOne",
        -14.309581959985781
      ],
      [
        "toIn",
        -14.30973152167245
      ],
      [
        "negSpectrumClass",
        -14.312391100534594
      ],
      [
        "ofType",
        -14.313504732141347
      ],
      [
        "PiNat",
        -14.313510916846472
      ],
      [
        "mallShiftedHom",
        -14.315204358859894
      ],
      [
        "grp",
        -14.31584084312832
      ],
      [
        "adj",
        -14.316259310669125
      ],
      [
        "summand",
        -14.317253365092178
      ],
      [
        "sClosedImmersion",
        -14.317463215888537
      ],
      [
        "biUnion",
        -14.320398275488632
      ],
      [
        "Element",
        -14.320692122264385
      ],
      [
        "Tactic",
        -14.321095467809187
      ],
      [
        "iIndep",
        -14.324639050459458
      ],
      [
        "Periodic",
        -14.32484831612324
      ],
      [
        "total",
        -14.327219787429597
      ],
      [
        "finiteCo",
        -14.32800968408623
      ],
      [
        "padicVal",
        -14.328199519015502
      ],
      [
        "upper",
        -14.32848780667791
      ],
      [
        "gment",
        -14.328741652539922
      ],
      [
        "IsRight",
        -14.329297528164727
      ],
      [
        "GaloisCategory",
        -14.32969619463092
      ],
      [
        "Iteration",
        -14.330114392353462
      ],
      [
        "FunctorCategory",
        -14.331128931884322
      ],
      [
        "Atom",
        -14.331564985255175
      ],
      [
        "mapCommGrp",
        -14.33217310760569
      ],
      [
        "sInitial",
        -14.33356858351729
      ],
      [
        "instIsMonoidal",
        -14.333808262647985
      ],
      [
        "AdicCauchy",
        -14.334177242900086
      ],
      [
        "mapRight",
        -14.33451105909253
      ],
      [
        "edia",
        -14.335108246998104
      ],
      [
        "unitGroup",
        -14.335469139069332
      ],
      [
        "MulM",
        -14.336896263687215
      ],
      [
[...]
